node {
  name: "global_step/Initializer/zeros"
  op: "Const"
  attr {
    key: "_class"
    value {
      list {
        s: "loc:@global_step"
      }
    }
  }
  attr {
    key: "_output_shapes"
    value {
      list {
        shape {
        }
      }
    }
  }
  attr {
    key: "dtype"
    value {
      type: DT_INT64
    }
  }
  attr {
    key: "value"
    value {
      tensor {
        dtype: DT_INT64
        tensor_shape {
        }
        int64_val: 0
      }
    }
  }
}
node {
  name: "global_step"
  op: "VarHandleOp"
  attr {
    key: "_class"
    value {
      list {
        s: "loc:@global_step"
      }
    }
  }
  attr {
    key: "_output_shapes"
    value {
      list {
        shape {
        }
      }
    }
  }
  attr {
    key: "container"
    value {
      s: ""
    }
  }
  attr {
    key: "dtype"
    value {
      type: DT_INT64
    }
  }
  attr {
    key: "shape"
    value {
      shape {
      }
    }
  }
  attr {
    key: "shared_name"
    value {
      s: "global_step"
    }
  }
}
node {
  name: "global_step/IsInitialized/VarIsInitializedOp"
  op: "VarIsInitializedOp"
  input: "global_step"
  attr {
    key: "_output_shapes"
    value {
      list {
        shape {
        }
      }
    }
  }
}
node {
  name: "global_step/Assign"
  op: "AssignVariableOp"
  input: "global_step"
  input: "global_step/Initializer/zeros"
  attr {
    key: "dtype"
    value {
      type: DT_INT64
    }
  }
}
node {
  name: "global_step/Read/ReadVariableOp"
  op: "ReadVariableOp"
  input: "global_step"
  attr {
    key: "_output_shapes"
    value {
      list {
        shape {
        }
      }
    }
  }
  attr {
    key: "dtype"
    value {
      type: DT_INT64
    }
  }
}
node {
  name: "global_step/VarIsInitializedOp"
  op: "VarIsInitializedOp"
  input: "global_step"
  attr {
    key: "_output_shapes"
    value {
      list {
        shape {
        }
      }
    }
  }
}
node {
  name: "global_step/cond"
  op: "If"
  input: "global_step/VarIsInitializedOp"
  input: "global_step"
  input: "global_step/Initializer/zeros"
  attr {
    key: "Tcond"
    value {
      type: DT_BOOL
    }
  }
  attr {
    key: "Tin"
    value {
      list {
        type: DT_RESOURCE
        type: DT_INT64
      }
    }
  }
  attr {
    key: "Tout"
    value {
      list {
        type: DT_INT64
      }
    }
  }
  attr {
    key: "_lower_using_switch_merge"
    value {
      b: true
    }
  }
  attr {
    key: "_output_shapes"
    value {
      list {
        shape {
        }
      }
    }
  }
  attr {
    key: "else_branch"
    value {
      func {
        name: "global_step_cond_false_55613"
      }
    }
  }
  attr {
    key: "output_shapes"
    value {
      list {
        shape {
        }
      }
    }
  }
  attr {
    key: "then_branch"
    value {
      func {
        name: "global_step_cond_true_55612"
      }
    }
  }
}
node {
  name: "global_step/cond/Identity"
  op: "Identity"
  input: "global_step/cond"
  attr {
    key: "T"
    value {
      type: DT_INT64
    }
  }
  attr {
    key: "_output_shapes"
    value {
      list {
        shape {
        }
      }
    }
  }
}
node {
  name: "global_step/add/y"
  op: "Const"
  attr {
    key: "_output_shapes"
    value {
      list {
        shape {
        }
      }
    }
  }
  attr {
    key: "dtype"
    value {
      type: DT_INT64
    }
  }
  attr {
    key: "value"
    value {
      tensor {
        dtype: DT_INT64
        tensor_shape {
        }
        int64_val: 0
      }
    }
  }
}
node {
  name: "global_step/add"
  op: "AddV2"
  input: "global_step/cond/Identity"
  input: "global_step/add/y"
  attr {
    key: "T"
    value {
      type: DT_INT64
    }
  }
  attr {
    key: "_output_shapes"
    value {
      list {
        shape {
        }
      }
    }
  }
}
node {
  name: "normalize_element/component_0"
  op: "Const"
  device: "/device:CPU:0"
  attr {
    key: "_output_shapes"
    value {
      list {
        shape {
          dim {
            size: 194
          }
        }
      }
    }
  }
  attr {
    key: "dtype"
    value {
      type: DT_DOUBLE
    }
  }
  attr {
    key: "value"
    value {
      tensor {
        dtype: DT_DOUBLE
        tensor_shape {
          dim {
            size: 194
          }
        }
        tensor_content: "\314\257\341G\007\264\262?=\254:\"\024\330\357?\n8\315\000\354\343\302?\2471@\363P\363\327?\212\207*\016\375\031\260?\\#\3768\314\335\265?M\323\266M0\035\260?\222v;\254\204/\302?\311cO\000\232h\333?\006\234\177\235\226=\300?y\006\211\304oP\263?\253\346P\276T7\317?\374Y\262~\301\033\317?!%\3624\313\253\307?\027?2\302\200\312\263?\244K\225\256\264\232\323?B}\034\344-\213\263?\253\244PA>\233\311?\236\316\357\335\341\324\256?N\347\t\322,\023\300?a\263\r\360e\241\276?E\017\024)\341\312\266?\003\374{r\022\237\261\277\304\377\256\263G\306\246?\010\t:\"+\264\273?\261\232\310{\276\256\266?\277\356-\022\376\370\301?\237C\2738a*\256?7\030R\2247\377p\277Z\322\373\r\255*\267?x\"\232\326,\353\230?M\312\276\332:\200\274?@\250SjkN\313?\372\323\270\312\"S\321?\350s2\224\272\264\272?e:\026\t\335M\313?\200M\202\251\3719\300?\246\263BzR\362\274?\322\n\023\023\302M\316?\220c\266\'\362k\275?\300E\243\022\t,\306?g_\370\017\211\005\304?\251\026\203\032\315p\312?\362*\r*\341\361\264?\341\257d\357\016\356\213\277\212H\330\255!\025\300?aA>A\222\364\265?\t\357f\236@\376\306?\311\256m\267H\315\255?\316\277-\275\325q\300?\177\326>\025\036\021\334?\\O\276\352\022\037\312?\035\315\274\025\274\332\320?\357\313aC\254(\340?\367D\203\206\221\355\300?\271\232\310\016\"\200\272?\250\353\242K\254J\277?~7\330\371\211\223\256?\265\0076\273\251\031\316?J}B>4\350\276?\334\302b\360\n\246\264? \213\007p\207A\276?+]\224\265Z\233\300?>6\217\344nG\324?\246\031\026\231<\"\325?i\360\025\3423G\306?\235c\020\275d\032\270?\365\274\210\2478\375\315?\321FZ\234\304\257\314?\374\322E\204+R\300?\234\016l\256\375\021\266?\376=\265P\353cq\277jN\2459\216,\325?\374\203*0\302\246\302?\022gk\233\347*\272?\351\334\265\320\n\226\327?\347\363T\376\352\356\303?\320\354\321S\230\002\317?\223=mM\355\236\265?\301Jp\260X\177\323?Rw!\372\016\016\321?\356Q\013g\257\245\277?w\376M%\214q\314?\240\315\017\373\2739\300?\271:\201b\304;\307?\232,\002$\031\000\313?\217>\263\022]\021\263?{}R\222\032?\310?\225uSX\026\375\300?\335?\007w\0266\344?\003\\?\346\3137\334?L\371\340\032w\201\303?y\007\277\247N\324\316?\212i\026\320Z\375\311?m>\263\306\316K\250?v@`\205^\226\320?ik\005\314\312\226o?\371\211\027\314\336\340\322?\014\263\264y:<\327?\372\301c\271QV\302?\207\267\314\2762\374\320?\016T|2\265[\250?Pp\261\242\006\323\262\277\027\375x\032\366\034\271?\365\252\226\300\"\211\305?\344t\006\004B\004\262?\256>\230\300\037\021\265?\260\007\242\r\021n\324?a\177#\313\223\265\300?\010O\346\364\3746\220?\265\253\225\253MS\320?\305\033\246q\000\341\242?\031K\031\267\037\220\216\277e\241.6\323;\325?\016)\374\325\300/\273?\353\'\340\372W\246\274?\255\365fPD\361\276?\3264H\361\214\236\303?1o\267\037N\262\304?\200C\227&[\023\303?h\320c\243\222+\326?\320\265\377f\001\221\234?9\225\322T\313m\301?\254)\204f\273h\323?L\nz\017\232\324\274?\376\004a\270\204M\304?-x\350\363\005\270\273?\214n\362\230\327J\316?\263\310\021\223\271\367\243?\'L\367\276\341\023\317?\237\031\217\025\246\266\307?\220O\327\371\010\023\261?\254tw\235\r9\314?\336\231H\352\266\244\261?\371\237\260O\366\222\300?\340w\355\201?D\324?x@\346\276-\274\262?\340`\201E\0047\276?=\273|\353\303\232\335?v\257:Bk\235\306?\302\013q\230\247\364\261?\022@%?\306\202\301?n\"w4\265|\304?\202\373>r$\375\312?\001\346\352_C\004\263?\222R\221\211\342\365\242?\352i\275hZ%\247?\321\r\221\366\346G\315?\366$\362U\331T\307?\356\361+\236\306\262\316?-jNc\035\274\265?W\324e\323?x\301?\024\n\317S6O\304?\264\215\206&e\337\273?\373\300\232r\241L\317?\002\336]\302\374\000\351?\324\3602e\325W\273?\217\342QgDb\300?\310\201\342\275&H\250?\356?y\362\305\353\265?\2707\"\214]\252\244?\222\300\247\270\370\373\264?=\221\377\200\t\'\326?\322\022\233\367N\230\335?\324\264`\351I\207\300?\352l8\224\360p\265?c\220w\353U\224\223?\177\353\300\302\024\250\265?\326U:\205\200\257\304?f\200H\025~V\270?\273Ib\002\344\017\334?\216\221u\003\310\032\340?\211uO\303\\\367{?k\231\346\377P\216\310?D\245\0213\373<\266? \341\237E\373\207\314?\222O\317\210\300[\323?&\006\273@\315\271\301?zu+\327\035\003\277?^B\027j\323,\276?~_O\200\320\226\215?wGE\352\335\202\327?w-\271;\177\233\255?\256]Y\360B\235\320?\226;u\335Bt\260?\217\376F$\322\002\311?\232JN\014\032\021\305?\272\324\323\n}\367\243?\032`+\020Y\376\274?uV\345$\217\005\245?j\020\261\204_\361\310?2\260wG\022\371\301?\007~z\212!\333\251?\037#\\\245\024d\315?"
      }
    }
  }
}
node {
  name: "normalize_element/component_1"
  op: "Const"
  device: "/device:CPU:0"
  attr {
    key: "_output_shapes"
    value {
      list {
        shape {
          dim {
            size: 194
          }
        }
      }
    }
  }
  attr {
    key: "dtype"
    value {
      type: DT_DOUBLE
    }
  }
  attr {
    key: "value"
    value {
      tensor {
        dtype: DT_DOUBLE
        tensor_shape {
          dim {
            size: 194
          }
        }
        tensor_content: "g\360\2056\361\357\265?\344\343\277\262e\350\320?[\345\215\274A\356\261?\362\017\002\302\354=\243?FZA\013\275\211\273?\237\001\251\330\216e\267?\206\t\221v\035V\244?\340LV\211\325\306\276?\375\021\n:\357\371\313?\271\023$j-\302\271?\245\3156\014&\313\262?\241I\365\254\212\201\306?\231\260G\362\246l\273?\000ak\254\200\037\274?\3348\023\347i?\274?\325W\374K\367\337\310?\241\202Vo\363\227\275?\300\352?\240p\014\301?\366(k\272\357/\272?\021\033sq0\350\300?\346=1_\034\344\263?\000\320\204\315\320]\264?l\r\230\314 \332\275?\325\320\020\322v\363\260?\316oVL\276\274\261?\253\326\345;\310P\256?O\266\341\255|a\267?o\"#5\'\216\262?\326\254\320\223t\305\251?\3041\261J\000\266\274?\273]l\260)=\261?\267D\354\033\261\371\273?J\3238\205\251n\265?\363\206\221\344\r~\301?TUBY\363A\277?\300sna}\006\272?\374\021G\235\007\227\270?\017\304L\267\371\272\266?\253G\211y0K\302?s\363]\257\210\030\255?5\271\321-_\312\307?br.\273\343\361\301?\203\234\222\324\213\337\300?3\037\262vKZ\260?\353s\374\352\206z\240?\'\260\371\353\'\371\277?\213\270\347\226\251\013\263?\271@\204\343\362\322\261?\337\322\023\221\277\006\261?T\276\261\261\\\000\274?\267\331F\246\275-\323?\227(\311\332\251\360\306?\3523\002R\344\016\313?I\305n\273\252\225\317?\037\357\324\252\375 \261?\254G\373\316\030.\263?\235\305\3050\253\240\264?\022\030\222cPE\234?;\211\037\233\2309\267?\000d\305\311-H\250?\367\322X\036Ko\301?OI\371\360\374\207\303?\376\255\203\324\004\311\300?\034\337#\nI\300\266?\345\321\021\351L\024\303?\371f\316\014x\037\250?\2209\307gO\325\275?\017\336\027\312\233\331\303?e-\177j.J\275?\316\320\306\261\370\004\300?J?e%{\276\274?\266O\321\325y\373\221?mj\311x\316\325\322?<e\351\316\t\035\301?p[&\206\216d\251?I\201\034\314\332\321\323?}A\250\336\\\364\272?\236|\2403n\014\264?\347\332\010\245\336<\262?\'\305s(\326\370\316?tb[{\251\\\303?L\307d\275\215W\302?d\\/U\202\350\306?i\207\326\302\340\245\276?`\334H\004\243E\266?\220\3173\017\303;\266?\034\337\213\355\275\021\260?\347\267\221\255\214\030\304?\004\307\206\352\275\343\261?\263~\177\277\242_\330?u^&4\220\301\315?@\311\236\266\246\366\276?2\270\336\035\266\200\310?o_:\277\276\334\275?\235\302z>+\262\262?D\356\245\315\221E\260?\3278!\310\317\263\241?\254=\366\367u\307\313?\372\005wD\336\"\303?\302&\223\234\021z\300?Z\260\243]\304\370\303?\336\035\322\325AQ\256?\220\317^\217\037\360\304?I\016Er\023d\257?\'\r&\337\033\354\304?Z\330J\035!\331\271?2\177\0321\222\301\263?\005C\365\215\352?\323?/}\202\240\260\377\263?\226\210\224\277\253\000\260?\276\352\010\255u\014\312?<\203\344o\013\256\271?-\230\327\225\277\020\264?\010e\271#\236\027\313?\231\207[$>\016\272?)\223\364\022^`\266?\027U\347\232\3076\301?u\200\324\3441\234\275?\265\265<\021\357\371\274?\200\235\204\232m\243\304?\030H\314\303t\'\303?e>4\264\200W\271?Z\266P\3369\'\261?\361\344Q,\342\024\322?]t\313q\033K\275?\307>\320#\251\371\277?i\001\332V\263\016\300?`\323vXP4\251?#z&\357t\313\275?\246\220\022X\214|\301?n\'\024\231\3562\270?\2146xsy\362\272?+\235\034\371\024\344\247?\021\311S\000\323<\274?\017\3610icW\262?\276\325&\215R\373\307?\361&\326\341\234\234\217?\336\220\372v\010\037\264?\347\303\312\240\216\222\325?\366\022\206\250\222\346\262?\024\214si6\256\304?n\363\032I\357\014\303?\'\220\363\255\370\016\303?\340\376\226\337\355\352\310?\243\315v\'\315\326\275?\006u\333\317s\325\265?\273\027\305\226\021#\257?\337\t\002\323\205r\300?\004\262~\003\370F\273?\306m\t\000[\214\307?\2671MC\0326\261?r\264\345\207\n\310\300?i\374P\326`\273\311?\342\335x\024:\361\277?6\033h\224\347\'\302?\376\010!\362&\227\326?\243\345\255\253\343\'\276?a\351\232\316\360T\300?foTg\3501\266?\022\332B\365\256x\267?\031_\324\036\221\027\252?\316c\350f\354\374\300?\205\274 M\265I\264?\027\361\303_\230\356\313?\r\315\366\232~\006\272?l\376l\237\346H\277?\027\257\344\360j5\263?B\367\003#\321y\277?A\372\351\351j\205\300?\177A\177_+\272\270?\214\212\303\217\355\331\270?eaM:\321;\320?\336[p\212\267\343\267?\342ae*\200\006\275?\330\302\233Q\315\016\261?.1;0%7\307?\244O\314\366\370o\272?\267\275m>_\307\246?\025\024\227\307\300\330\266?\215\261\016\245\310\352\271?\246\031\372C\r\210\242?3\336\271\244(\337\315?\254\377\202\303\\\351\265?\327\244i\275\320\275\307?WZ]\206\263\346\272?\325\2671\025\231{\311?\375\255\353\267yZ\270?_\222\322\205\273\'\256?\213\275\037\320\374\336\303?\030\222!4sb\247?\324\030\034A\004~\264?\200\037\267Z\205\237\306?N\356\337\013\177E\262?\310\357!ln\010\310?"
      }
    }
  }
}
node {
  name: "normalize_element/component_2"
  op: "Const"
  device: "/device:CPU:0"
  attr {
    key: "_output_shapes"
    value {
      list {
        shape {
          dim {
            size: 194
          }
        }
      }
    }
  }
  attr {
    key: "dtype"
    value {
      type: DT_DOUBLE
    }
  }
  attr {
    key: "value"
    value {
      tensor {
        dtype: DT_DOUBLE
        tensor_shape {
          dim {
            size: 194
          }
        }
        tensor_content: "\r\2312=O\246\264?0\256D\342\026\272\321?\350:_|i;\260?\232\321Mj\201\240\240?a\370N\355\210\232\272?\344\r\337\253\036\374\263?\256\366R\246\010\330\241?\321$Nz!\025\272?\373\344\220#\211\235\310?H@W\353\\\202\270?\000\213\350\026;\223\257?\300j\0335\025\030\274?\351%3\317+M\263?\337\266r\323\277\324\274?\303\006\016\337\367\254\272?R\367\243\326k\342\305?J)\0300\251#\275?7\262oJ u\276?\241x0\212gN\267?m\244\007f\3168\300?\016\351\231Y\251\362\262?\002\377\233\3445\231\263?\321\002cfg\235\271?\007\220F\252\224C\246?\"\373\322;\022\270\255?T!N\302\255\004\254?\314Q\352\0148\275\264?\2744F77\260\257?\303\200l,=\247\245?$\350\360\217E\272\272?5\014\233\330\256\026\261?\206I\206V\006\331\272?y@/\225\344$\266?\340\377\357\321\340\213\277?9\302\210\316I\247\275?\223\n\242o\204%\261?\247\377\337\352\226\243\272?\004\322\240\226V\253\266?TA\361\325!\006\304?\r\253f@7\340\246?%\241Zh\332J\311?Ee\254\376T\221\300?\270\346BpR\324\275?t\251\005\207\373\356\261?9\275\2730\372S\200?\321\007\216u\270p\275?L\265w\2171\314\260?Nk3K\213\305\263?\350\277\360\022\350\210\260?5\343\312_u\362\271?6~\215\226\226 \323?oZ\254\205\262 \303?\207\375x\221\004\277\307?\371t\000\272\353\t\313?\327\025\r\3738\370\247?\023\361,\372p4\264?\304\361t\225\213\004\265?\340\364Y^\354\317\225?:\014\222\260\002\013\266?\311\211\007x\370\211\250?\207T\247\274\203\003\301?\254Gc\262\215\277\301?\035\244!\217R\034\277?\001\252\260\000C\342\265?4_\002\020\247.\304?\363\330)e8\357\256?\037\363n\035\375\336\271?\016\010\332\010\267\301\303?\033\304g\350(R\270?\207B\357\200\367\375\275?\241\177\2725t)\273?\264A`\304\3029X?O\032G\005~/\322?\252pM\177\313\343\300?cP\\D\312\005\254?n%\3434\036\016\324?\342\010\255\342\350\205\271?\027\225\305\336:h\261?\324\361m\001n\004\261?vf\"o0I\314?\372\025\252\034\014\325\301??\201z\252x`\276?<\264\331\242\026\024\306?\'\363\307h\250\307\273?\215\026`R\216_\263?\364MD\006\214\n\256?Nw\324!\002\321\256?@\276\257\212j\343\301?45\333\245\245\243\257?^C\003\300\227\363\326?\0064\227o\013\203\320?\222\334\246\347\371\255\273?\013-\270\r\r\005\306?\342\001V(\201\266\274?\353\014QZ\277f\257?ozu`\311\355\255?\377XbG\336\227\242?$\017\007\263P\305\311?@\\\232\244\367\"\300?\363\345rtva\274?\272\344\001*\361\000\300?\353KPrp\261\253?Q8\365`\3264\303?\234Q\334\271|`\243?\357XK\205\241c\305?\022\332r.\305U\271?\315\263P:\252\375\260?K\232yQ?\330\320?\315\350\034C\315~\264?5u&\206G\217\255?t~\231\016\356%\311?h\307\255Lo4\266?\254$^\020$~\262?\242\370pJ\362\274\312?O]\330\036\346\340\270?(\325i\235\353\r\272?\t8\271\034\005A\277?B(\226+!\367\273?\034\210\251P\204$\271?#\031\370\245\014\t\303?}\322\271=ij\300?U\375\177\331\223y\267?{4\223w\'\002\262?\331\3073\375L<\321?\325\201\033E\260\323\276?!9HqVP\300?\255\222\021\025\177[\300?h\302;h\2222\243?\3125\271\243\365\363\275?\002\2571\020M\236\276?\014\221f;\305\373\266?\250H\2560\267\332\271?\333\013<_\002\243\243?\235\"Ck\236S\271?\016\332\217:X\204\267?\020\2025\236m\215\306?\364\362\314\257\014\310\231?\312\020\210Vuv\262?h4\221P5\205\323?E\326\345W\035\000\261?\320\017\273\240\322\211\303?*\223T\205\212Z\301?\300\232=\257\374b\301?\305\311\261\200\377)\307?\262@\344\302\273;\277?\251\033 \177\006\'\266?\362\200\027U=\033\260?\330:\020\020\316\322\277?\207\271D\370\216\317\270?8\354\r\252L\362\306?\224\343\251\242\323N\256?;\265\315i#\022\277?(TL\262\311\262\307?P\n\021u\301N\300?\254\367\232l\243\004\272?\376\326\312[\340\330\327?\223\016\324\376\016\022\272?n\365\377\036zZ\276?{\037N-I\210\264?Pc\202\347\314\340\221?\330\322\272E\024\036\254?X\016\314\210\r\301\300?\027\3769\360]\217\252?\365N\201\243Oq\312?\001\177Vk\361\301\265?y\274\373\251\022\341\276?q#\334\231F\351\256?\025e\200U?\000\277?\026\341\206\025\367\352\277?|\\t\342\r\021\270?\025\260\2536\360\204\265?\177\325\202\370o\007\311?\337\360\260\300\277W\270?\\\020_`5\032\271?# d\373\276\357\257?\306\327\246\312Z7\305?\330\236\027\366\315`\272?k\223\215~i\216\240?);\315g\030\365\263?\027\206\225\370Fn\271?\"\275\260N\370\031\244?\225(/\275\363G\312?\346;\201{a\\\263?\207\232A\254\231\235\306?\263\001\001\000:+\273?\002w\323?\036\000\310?=p\211\264qj\265?\006\244\237\236\256V\254?\002[\266\272\302\331\305?\276H\240u\030\211\245?t\242>x\326\266\264?\017\010\007\212>\260\305?\215\016\236\302w\206\257?\236\032S\243\234W\306?"
      }
    }
  }
}
node {
  name: "normalize_element/component_3"
  op: "Const"
  device: "/device:CPU:0"
  attr {
    key: "_output_shapes"
    value {
      list {
        shape {
          dim {
            size: 194
          }
        }
      }
    }
  }
  attr {
    key: "dtype"
    value {
      type: DT_DOUBLE
    }
  }
  attr {
    key: "value"
    value {
      tensor {
        dtype: DT_DOUBLE
        tensor_shape {
          dim {
            size: 194
          }
        }
        tensor_content: "\005\3014#\273\206\274?J\232N\321\342c\305?\277\271\025{\225\240\240?\217\227.\367\3334\252?\234\334\357P\024\350\263?\021\377\3743\215\352\272?\3062\220v\302\234\262?\277\027\307\227<\335\234?\204\324Z\211Z\211\300?n\217\035\325b\320\264?\212\365\001\331\317\210\302?(W\314\226\031\247\276?\313\320\302\257\242\320\305?6\246\331\234\200\257\305?\2224\243\022\343$\260?\203v\361\370\242\257\277?\245\277\023\212\337\332\253?\304\013\352\247t:\300?b\360\027P\373o\274?n\224\265\200\342]\272?\317\346\272\356\202H\302?\026\207\233\242\017\325\266?H\273\234\325\254z\267?\022\017\024\267\213\342\275?\232OST\310X\244?\212i7\336C\340\264?7\007&<Cf\272?W\341H\0004\323\276?\241}\230\374\320\376\277?\216\313FT\231C\265?\262\227OQS\235\277?\205\364\341G\237\320\250?\276\234\317<]\266\272?\231\220\324\027I\010\300?F\210\002\350\275\322\263?\333\203\006\036\274\317\267?_\227\375\224\014{\267?t\250F\262\276\266\265?\261\026y;\2750\260?\353|\226\354z\027\273?\366X\273l\302]\273?\234f\373<\270\316\242?.\342}M\275K\302?\001\367\251\033\t\343\311?1wD\275\224E\264?\033\206\345\210\342y\266?\002\261\353e{w\274?;G.I\257\027\277?\276aB\317\335\343\273?\245!\2436\203\225\300?Y\036\2346\200\312\311?\345D\315\355\344\'\266?/\272\\\307/q\270?\220\375\262\317\361\276\317?\241\354\337U\014\340\302?\261\273,e\232\342\262?\322_}v\237\347\300?\344\315\000h\253J\272?\221l\333\033ow\300?\213\246g\005|:\315?\005\323\245\211\273\035\273?\205d\311hY\001\272?\317\036\254\"\203\254\301?l\016\347L\240\251s?ni\276\025L\246\237?\014\010\226\353\271\301\303?C\026v\014 `\275?l\'p\t\305\370\272?D{\333\235\314\367\263?\264jB \270F\301?\251t1\177\345>\266?d\334D\225\260\"\273?\273_Q\206\264\312\303?\306Q!m\317\353\262?Z\270\351%\177]\270?mp\253\353\023j\300?\316\n\211\327\234S\257?3\314M\367\341\360\274?\332\235b\223\004\372\250?\272G\265\326\267\026\311?\027\265\010\200\202\257\302?p\234\225fS+\265?\316\t--\033\204\255?{\202\224=\341#\271?\352\\G\330\224\204\262?\371\023?\r\262\201\302?\233\001\267\271\364\331\260?D(\034e\360<\303?\356\343\221\r\336\366\301?\205\313\377\353\251C\271?zR\325\355\264A\312?\354\215,)\017\274\272?j\334\342\264\274\177\262?\376\036xYl\303\271?v\227^w\307\035\262?\302\032Z\251\017\300\307?\tiS\226\235\025\300?\201UD9\020\223\264?\005EBG\352\376\300?0\357\251PhO\274?a\355l\353N\307\265?\261NN\032\216Z\270?\375y\241 {\364\304?\327\035\312\321\225h\266?\343u\002<\227\031\300?T\257\232h\t\222\226?\247\002\223\300\213\343\276?#?\"sSm\302?\207\355\301\2002\201\266?\376\242\321\013\341\022\273?I\320 \204\316\213\276?\305yB\363\\\206\275?\005\275D\260\002\340\272?k|\366\301\321\214\275?\374\341O\243|@\303?\254r\3629\257%\302?n5~\360\300Q\271?\235\350\004~\236P\271?\204\335\020\340} \261?\245\334ncb\334\266?y\254\017\247p\235\303?\375B\336^\021\275\300?U\341\275\r\253\244\273?\301<s\365\264\332\310?\032\362\261\266\207\017\313?\334\353I\005\272\233\303?|B\343z\365\240\273?=\010d#\316\222\244?\326\261\252[\306\030\241?\241+\334\265.<\306?\016Q\333?|\304\311?XY\236\261v.\267?z\220\0230\376Y\306?\033c\340\346x\370\274?\257\247\312\265pr\252?\016\200\365\016pn\275?\257\254\372}{.\272?N\"\263\224\333_\261?\325\3165n_w\313?\325\004&w\245S\245?\215s\236(>\373\300?\311\244\027\231\246&\274?G\306\303\253GB\265?\326iI\354\177%\262?&\tR\301\222\277\253?\305\310 \344\255\324\224?m\"\211\027q\245\300?E\027\016cV\230\276?\177\031\301\003Y\010\276?\256\353\010\301Y\263\261?u\312,\r\277E\267?|Tk}k\t\272?T\255\035v\363\025\273?\370\350\276\260\275\025\261?\346<\361\t\312\016\300?\271\232Q\000\200t\317?:;\303\033l\306\247?\026\211Z\261\367\226m\277\313j\250\273,R\301?\335\335\344f\241e\267?^y+s<\344\261?\262f\362:\323\345\277?\243\302\'\211d\211\301?-\254\232ny\257\305?\261\252B)x\017\253?\340x\215I\276\023\274?<\311\036\355\364\215\252?\356\260\361\257\321\261\250?\267j\256\005\203\214\274?\312\354\003\373u\310\274?\321\307\034\316s9\311?7\331\307\211\375\205\273?\001!\217i8\250\273?C\346gv\037\270\306?\365:\303\203O\273\271?1M\246D\361\256\275?\207\010I\260\202)\303?\027\220\346]/,\254?4.\366@&w\272?r\365\240\366\024\346\262?N\261|\363\241_\245?u\277\361R=\033\307?\330g\330l\0105\277?\244=\332\017\343\373\256?\273\304\230\301\006\256\266?\361\005+#5:\263?&H\261Kp\304\236?\\B\236Z\006g\260?\200\203\230y\342!\272?)}\247\035\214E\270?\230\353\002\230\021\"\302?\371F\363N\245i\265?<B\216,\347r\271?\304v\t\344\230\200\242?"
      }
    }
  }
}
node {
  name: "normalize_element/component_4"
  op: "Const"
  device: "/device:CPU:0"
  attr {
    key: "_output_shapes"
    value {
      list {
        shape {
          dim {
            size: 194
          }
        }
      }
    }
  }
  attr {
    key: "dtype"
    value {
      type: DT_DOUBLE
    }
  }
  attr {
    key: "value"
    value {
      tensor {
        dtype: DT_DOUBLE
        tensor_shape {
          dim {
            size: 194
          }
        }
        tensor_content: "\365q\341\376+D\273?G\200\022 \274V\306?-\r\345\014\021\254\230?\001\230\024\032\346\326\252?\001]\236H\334\325\263?y>.j*\035\272?\344\370\367\322A\002\261?\244&\030\323\356\205\223?m5\370\266\361\213\301?\341FF\336\244/\263?\223O*B3\315\301?-\025\254U\341m\276?\n4\r\307I\332\305?\332\256\303\335\310\330\305?\252\303(\r\327\230\256?A\327\242+/>\300?&|\034\361W\r\252?\031\360/\013\270\252\301?\354\224\261\033b\256\273?A\\\377\317\335\005\271?\226\263\356T\375\340\302?\3077\026?\206\301\264?<k\274\026\"\227\265?\214\315\262\032W\313\274?\317\277\353\240\003\254\250?p~\036\376\365\345\264?\2730X\305\251C\271?y\2272@\0075\277?\027\363\311C\014\337\275?\352v8\262\331.\265?\363)\370T\353\320\277?5\310\224w$J\251?\277l\010|\350\374\270?\373\032\017\327\346\326\300?\3326\\I\312\024\262?|My\356\351\334\271?<\034\336%\321H\266?y\26236\210\227\266?\021\323\375\035\003\222\263?\310F{\027J\201\272?c\243<\213\217c\272?&7\205\363{+\243?\367 4\035b\205\301?6\272C\275\362v\314?;\246\206\347\271\306\265?\n\204\235b\325 \265?\\\375a\026\235V\274?\204ru\334\375e\273?\314B\\\265B\303\271?\220\346\353\331C`\277?\301\240\240\242W4\313?\305g\253\305\271c\266?\341*\332\022u\303\266?\222\006E`\235\204\316?xJ\227\226B4\303?;\006\236Z\001.\263?\226\311\316\255\240\301\300?D_:\340\314E\270?k\2242\377\241F\300?\307\311\302\254W\236\314?\3755B\007\251\320\272?\257\352\206O5\330\272?\362\002\2141\'\335\301?Q\354\3767J\354\203?\006\002\317\203\334\301\225?\363$\261\360j\003\304?\346(\r#\'\215\276?\251&IV\314\250\274?\221xI\001A\267\264?\254\360\272\300\335@\301?\361HE.\373\237\265?\033\321\306\334x\241\271?\227en\017Y\234\303?w^-\356t\244\261?\216\216/\312\001\365\270?\201\206_3\276\304\300?\303x\264\016\232\237\257?\376\232\375\230\016\321\275?\335\202m\020\"#\244?\017d\230nm|\310?\021W\316\336\031m\302?\260\301g\220\'n\264?:\345Z\177\016\235\253?G\031\263\035:Z\267?\226\231DPD%\260?9\326A5\2204\303?\020\215B \004\325\260?\300Yf\353\302J\302?\271.\016\3048S\301?B\241\335\242E\226\263?\024\234\234\317\360\216\311?\363\2162f;\364\271?\234G\322) \321\261?\002\334\255\336A\351\271?\322J\376\2007\277\261?\334\351C!F+\307?\023n_+\224\021\300?\334\316\361\343\305H\260?\362\227\312f\004W\300?\223-\346u1\276\273?\354$l\211\246}\265?\212:\340\2537\231\274?\016\334\322\201\344\221\304?P\250\351\253\222\345\265?\226 ?\365\361K\277?{h\037+\370m\253?\024\260\314D\331\247\275?\"N\367\237\324U\302?\263\213b\354\226z\265?\376\324\207\024T\353\266?\235x\212\371\022Z\277?\016.\362\362A=\275?[\301\350RY\035\272?^\270\265}v\335\273?\3461Lk\250\030\302?sG\227\350@\027\302?\222\354\203\277nw\267?\202`\327\364u\240\267?\017J\213?\371W\260?-C&]V\010\265?E\3414\366\205\215\303?O\305yw\345\254\277?\024)\327X\345i\272?\023}\314t\240\250\310?\324\t\022\"\263\317\311?\304\037\357\234\000_\303?/Q\t\304\365\354\274?s\266\2753\223\325\240?\220\245\375y\224\366\236?i:\352\321\034\245\306?\367%4\254V$\311?\223\320L\346\016\321\266?\352e\237\275\266\333\310?\367M_\244W\320\272?\211\232\016\273\364\321\247?\345>\222\302W\034\275?\031\321\265\260 -\271?J\204\265M\313q\260?h\177\230kn\230\312?\243\357R\020Z\024\241?\202\231.Ek\245\275?\\\301\333(W\235\272?\322d\020ie\214\265?\214\230I<\357\262\260?\237i\221\006\032\340\252?\341w\006\037\340O\266?\277\272\234\245sd\300?\222\242B3W\237\275?i\225\262o\233g\300?\207\003\310\240xm\263?\343\010Oq\347\205\270?\320KP\271E\275\272?hT/\253\357\375\266?,\271\200S\374\270\261?\'\275\370mKN\300?\177\357\205\265p\232\320?U\030\370\335\266\347\245?\243\344\1779M{\207?\331\365uZc\302\300?c\311\316;K\231\266?[\020\275\3216\032\246?rm\\\212\241X\277?k\200\261B\272-\301?%\234\t\222\346k\305?1\r[dO\303\246?:N];I\241\272?\177*\t\261|[\244?\t\264\302\224KZ\245?\033t\261\205\372?\274?[|\356*\302\322\272?\244!\3654\346I\312?\253ZV\212\262q\277?a\034ke\023\367\273?\371i-\343\3360\307?\374\325\007\205M\214\270?\346%\016\277\3545\271?\025\376\3345\300\303\303?*\0355\361\321\214\261?\035W\036\002\031\312\270?#u!\247\306\203\262?\260t\224<\004y\235?\314]<\235\332\202\307?\025\312_\255\034\322\276?\272]\237\241\316\310\264?m\3743\312\315L\261?\205\0004\330A\026\263?\304\252\375z\336\275\230?{iM\235\216\232\254?\323\302Ny\300\261\271?%\303@\303\332\231\263?\314\261\267\362d\207\302?j\205\031\265#\036\266?\334\360\375\005i\343\270?\246r\342\304\272e\246?"
      }
    }
  }
}
node {
  name: "normalize_element/component_5"
  op: "Const"
  device: "/device:CPU:0"
  attr {
    key: "_output_shapes"
    value {
      list {
        shape {
          dim {
            size: 194
          }
        }
      }
    }
  }
  attr {
    key: "dtype"
    value {
      type: DT_DOUBLE
    }
  }
  attr {
    key: "value"
    value {
      tensor {
        dtype: DT_DOUBLE
        tensor_shape {
          dim {
            size: 194
          }
        }
        tensor_content: "W?\020\002\355l\271?\316B\342\356\021\t\307?\246\2667l\031x\223?\t\221\275\362\341X\260?\320\315n\225v\326\263?*}\363\253\321\\\271?\236\023}iJ\345\256?E[\356\374=\331\222?X4\204\000lB\303?\001\303\205K\255\310\261?\217\322\220\344\376\022\301?\337\021\326EX\364\275?[Q\200\261\211\317\305?\225b=q\335m\304?\005y\013^\323\007\255?+\360R@\223*\300?\032\005\n\272\222$\252?\032\325\373#\222\374\302?\201X\'H\033\260\272?[W\210\353q\017\267?4\247G*\276\247\302?\345\223\0354\036\231\262?&\2068dp\205\263?\215*:\307\275\317\273?\025Ef3)3\261?,\210Sv\222^\265?_\3125\017\244.\270?i\276\250\257w\227\277?x\224\304>s\351\271?\004\004;J\232I\264?\264\233\372\357\252\017\300?u!<+\200a\253?\026a\317F\312p\270?2JD\266\373\256\300?CW\"P\375\203\257?\022\263x`\351\304\275?%\003\255\261e(\265?d\247,\376G\212\267?\213{\245\214\265\310\267?v\314*\200\352\036\271?\300\005q\317\007\214\271?B\016\245Q\334L\244?\350\216\r\303\230\313\300?\372\024\266U\377\226\315?\300\310)\014Z\340\270?\340W\354\374\311\002\264?\251s=\270\330@\274?\307N\221\246\356\010\270?m/\331\340\223:\267?;\377\314\331h\244\276?~7\0103\2400\315?I\351\302\335\223f\265?I`\355\324\316C\265?\314\333\t\335\302\006\315?\017g\004o\326\215\303?;\022 $\272\320\263?\217\03167\227|\300?B.\272\27281\265?\204p\305\370B\036\300?{\021\325\252Io\313?\266\376\005\236U\310\272?\353\341\313D\021\322\272?\306\267\252\376\236\336\300?\316\220PQ\372\344\240?6\000\365H~\"\221?ix\227\261\2771\304?\001\016]-\320\236\277?j\353\010)=(\276?\022\301\034cE\022\263?\256\340L\206\302+\301?\353F\"\253\220\257\264?\3011u\236KM\270?\\\267\362\246\343p\303?\026\327\235\223\203~\260?Z\025\244\303\212\355\271?{\272\362\r\020B\300?\314\007\324\000}\331\257?\004\211\227\356HQ\275?\276\372\025\276\000\363\237?\300\372\354>\3178\310?vf\265\322\001O\300?~\213\375N[\357\263?\003\226}\323\313Z\252?mQ\006\021 x\273?\362\377\207\0243]\253?\223)L\0032\300\303?e\335\242@],\261?x\303\350\177\332d\301?\202\255\257\001S~\300?z\210A\276V\322\251?\236\267\346\313ap\310?\243@2,ej\271?\366\243\377\352\023n\261?\301\277@\304\221\375\271?7\354\025\033\225I\260?E\235c\207\313F\307?G\251\233\303i\314\277?\357#\034R\303\271\251?h\026\003Lb\016\300?\320\244J\035\257\203\273?\245&\013\251\354\205\265?\312\344\t\301\000\273\300?#\316*6]\304\303?\205c3\023N\203\265?\317w\260\370_D\276?\303S\256Av\226\266?\264.\233$\211j\274?M\000=\216\2309\302?I\230P^\267\312\261?\235IO\0346M\261?\327\263\340xPf\277?\315\237\377\266\330\001\275?\302A\352\222K\305\270?\006\300\262\261\226+\272?l\003Gg8\334\300?l\262<\313\320\021\302?\276\334ic\323\347\265?*eTDF\272\265?P\nA\256\327k\257?\305\326i-\227\320\260?MS\333\270\213\021\303?5\373_U\215C\276?\026\031M\311\232Z\271?`*\354X[\'\310?\261\326\360\367\002(\310?So\357\025;,\303?AOBj\2146\300?D(0I\327\337\237?4\237R\251\002\203\236?\360/\304\342\036\350\306?vD\300L\324\005\310?.\307\271\272T\206\266?\261\302\007X\246\375\311?3)z\352\325\243\270?\251\353\036\023\010\277\250?\343<_]\\}\274?\243R)\3144G\270?\357\371\274=c\272\257?\206\235d\326K\206\311?\211\367&\312\001b\234?\367\002lm\005\300\271?|td\221\2303\271?b^.\177\021\366\265?\225;\006@\351\377\256?\227\322Q\023\037\315\252?g\311\327\366Z\266\305?JE\034\030d>\300?\2329\340\227S\262\274?\357\223@\326\225\207\301?\322?\332b+&\266?M\313k\314\273\317\271?\2210\324\255\023!\275?\375\203\035\006\300\346\262?\177*\241\315\007\212\262?\322\235\tHY\221\300?\212\255\313\351\345\211\320?\027\357\234m;[\246??\261y\025L\016\253?\034\214\217Q\3119\300?f\306\032\257\362\344\265?}\246f(Q\243\261?\224\250Q\'$\302\275?\3370\241\347\3561\301?0\016.\035s^\305?|\035M\002\217\000\244?$\374\372=\213\207\270?e\002\256\306:\236\236?(K\347\242\245\033\245?\350\352J\2509)\274?\235\331\365\245\223y\270?&\354\267\203\314\246\313?\244\361\336-\235\312\301?)\361\24700W\274?\036\177\213\026\354\273\307?\370\240\232\244\217\177\267?\t\344\264\325\034\210\263?\372Lem-5\304?0\276&sE\214\264?\357s\344\227\2554\267?\203\245\001V#H\262?\256b^8\361\204\221?\014\260n@t\326\307?E\366A\226\005\223\277?\351\362y\324~\274\253?\177?~4q\262\250?\340\005\363R\017#\263?\200\024Y\221\357W\240?\250\023O\304\302\023\250?\232 \"\351^\035\272?Z\260\\\2108J\255?\340-(\275\203\340\302?\016>F\331X\022\267?N\245/\034\271\202\270?\016\253k\371\360H\242?"
      }
    }
  }
}
node {
  name: "normalize_element/component_6"
  op: "Const"
  device: "/device:CPU:0"
  attr {
    key: "_output_shapes"
    value {
      list {
        shape {
          dim {
            size: 194
          }
        }
      }
    }
  }
  attr {
    key: "dtype"
    value {
      type: DT_DOUBLE
    }
  }
  attr {
    key: "value"
    value {
      tensor {
        dtype: DT_DOUBLE
        tensor_shape {
          dim {
            size: 194
          }
        }
        tensor_content: "\367\262\253\230c\334\262?6\2469\017\255i\272?\006\324\2554\257>\257?t\242\302\260z\302\273?\200\tje\263\204\300?di\034\364\351\024\301?\177\200l\224 \234\266?\n4\274\177J\032\264?\202W=\363\201\203\275?`\242?\ts\210\257?06\366\352\270!\265?\230\320n>\277\271\271?|\345#$0h\304?\207@\271cm0\304?\346\022I\037\263f\271?M\177\245\334Ed\272?al\211\253\266\332\266?\341\371\257\355\231\027\302?\204\275\264\241\225\r\301?yCk\\7\331\275?\347\224\020D\307\"\253?n\\\340\241\021\264\261?.\341YM\232\260\273?9\254\265\237\250F\250?K\r\334\235\217\024\253?\3233>En\203\300?\201-\201$\204\270\300?zv\027-\342i\272?\005\244\363\235<\205\276?\331\332\346\271\312\002\265?\014h\306\373\241\264\275?\362\257R2\032(\262?\377,m\243\307\020\256?\314\301\326\346\253\326\264?_\310\030\217\272l\273?\205Cycdp\272?u\274\350|\2172\234?\211k\323\335\027\305\263?\320\377\255\217G#\266?S.\030R\001\324\263??\350\246\273UQ\262?\304\004\276mi_\275?\021\302n\233S\020\256?6i\035\314[\262\266?\307<\324\261\250Z\276?m\275 \3165_\272?\034\310;\006\262>\263?\234:\316\356B\323\272?Ro\006\262\260\275\263?\263<\276\246\317\332\263?XN\301h\366\303\270?\"\245g\347%\340\263?u\000\374\007\034\377\267?\236\037\273\025\006\010\312?\324\223\227\324\2070\257?\322\022\306w\253\254\261?Drq\325\3567\270?;\206q~]b\277?\026\223\205O=I\257?\306\316\331\327\301\216\274?{\"\304\237%\353\261?\320\257\333\327\351\326\262?\204\272\217v\270*\253?t\307\363\375\372?\273?s\254\033\207\253\227\267?\251\230\277LX\276\303?\330\220\207\327X\266\262?\224\320\235-\016Q\263?\201B\262\212{O\256?\260\342O\262\247\255\300?\371\\\226D0\355\262?b\352\213\335n\344\251?\243\374\261\004\252c\264?\036\322\320\210\227\374\275?\256vY\273\t\030\273?\030\301\236-\"5\300?J \303\002\026\373\254?\361xb\357(B\263?\302Y!\027b\026\257?2\260+\271\314a\273?b\261\016\306\326S\265?\ttoCaW\266?|\201h\314u\261\301?\013\322\330\323\030q\262?HRD\031\271\r\273?3\273\211\202b)\271?[\334\363\272MQ\262?#A7\202\364\227\300?=\306h_q\237\265?.\226\202kw\332\257?\302\233\252\205\326\346\303?\333\247\030$\323Z\275?&U\260\315\223Y\260?\254\216\034\351\014\014\273?;\301\236y\260\372\275?\252&S\310?:\304?\342\212\344[\272\252\277?\026\242i\247\353\253\274?\336\007P\356\2370\301?`ot+\n\017\273?\222\350?M(\"\304?\216#R\252\257\364\266?_lx\177^\346\277?\203_\275f\306\226\253?\037\225\261\215\267\026\271?`&\326\036\0005\266?\251\236/j\265\217\256?LQ\r\177v\325\300?\301\021\356\337\006\206\301?\245-\2518\340\003\300?\361\020z\301\235G\271?\025\235\215\336n\036\267?\032\017\242\364\006\021\272?H\362\253%\\\311\270?\252\t\n\322xa\256?gl\001\004 \254\270?)\320,\253\336\221\300?\177t)/\253\220\262?\010\223\204r\022\262\276?\321\257\214\221\025\021\264?=\001\264\260\036l\300?\2305\300\353\204\256\253?\220\335L\037\226Z\265?q\262&y\"F\315?lCb\016\304*\302?\353\270!\223z\271\300?\217\376\331\207\243\310\262?\330\025h\264\253I\252?\375\344\t3V\343\264?\3622\317\271\367\212\305?\341#\273\002lh\277?Y\262\201yj#\261?\2110\307\360\255O\262?9!\031\027\263\312\267?ej\330\020\230^\273?\370\003\273\355\204\217\273?\365\316\255\177\363<\275?9m?yU\360\302?M\324\3561:\033\264?\214\234\023\350\004\316\267?\263\363J\032\"\365\274? F\3549\007T\264?\226G\016Cq\350\261?R\204%5\354\253\275?\34649\354&\307\262?\376\344\321\210\367n\277?&\340\031e\344\311\262?NFI\323\226\366\271?\205\034c@Y\245\265?\013(\222\267u\232\265?+J\377N7\251\253?+\336|\256\254\360\270?*\010\244\030\256{\265?&\355CgdS\260?\033\255B\201y\363\271?\351\312I#\304g\277?\314Ac5|\\\262?\204\272\001\314\240\315\265?\032\362e(B\370\262?\373\364\005\030\211\025\266?\244\034\001\031\220v\262?\250\255%\245\037[\255?i\344\031RJ\252\257?\240\261}h\351\001\300?8\310L\3534\247\304?9\344Hb\247\352\302?\245\255\000\225\340\303\247?\021K\036\335u\'\273?\177j3\2035\244\263?\215\305\023\232T\317\261?l\337\246\266\tt\306?/b\363\377\027\300\274?\324k\246\207\020\363\300?Y\267jl\3510\270?L\237/S\031\232\260?G\316\"\021\2432\270?\350\030\341\004\336}\300?\352\324\377\263\222H\266?\331\343\377:\251\302\273?\343\234\'\212\317\236\267?BP\240\0259@\271?\376\346\017\027\312\323\311?\021\246\370]\260\322\270?\302\246}\\\343\177\266?!<\000\000\005\271\257?\361\267\245$\327\014\261?(\360\300\223%Y\255?99\365\341VJ\272? \252\363\037\007\342\266?\246\235\014!\366\250\270?\\E\2470\264O\306?(\0168\374\202\036\265?\005X\225\221;\353\263?T6\201)\320\025\270?"
      }
    }
  }
}
node {
  name: "normalize_element/component_7"
  op: "Const"
  device: "/device:CPU:0"
  attr {
    key: "_output_shapes"
    value {
      list {
        shape {
          dim {
            size: 194
          }
        }
      }
    }
  }
  attr {
    key: "dtype"
    value {
      type: DT_DOUBLE
    }
  }
  attr {
    key: "value"
    value {
      tensor {
        dtype: DT_DOUBLE
        tensor_shape {
          dim {
            size: 194
          }
        }
        tensor_content: "\253\351\226\367\032}\267?\373\276,\253\270J\307?\220\2319\224\t\016\227?Py\270@)*\264?\245[\327\261\017\007\264?>Yi\006|\364\270?\317\330*\320\r\236\254?\210\337\214\0330\250\226?^\223z\276\202N\305?\214;\'\273n\321\260?-\211\310\275\264y\300?\333\263?4\031,\275?,M3\245A\306\305?\352a5\204\315:\305?\312\205-\352Q\300\253?\340\240\2273\326\234\300?U\203L\014\253s\253?[\014t\2466\334\301?\353\226\304)\330\036\272?k \375\371-o\271?\341YH\341\366\033\302?\025$\256J\277P\261?\332\361\335\350\216\276\261?\025\223*\226\312\367\272?TX\365.\350\201\266?\237\360?\035\202\357\265?\020\271\232\356\325D\267?ii\343\222\'\354\277?\312\226\354\245\027\237\265?\344=U%\2245\263?\223\350-jl9\300?\366Z\335\245e\210\256?T\340d\033\270\203\270?\301\023\032\213\035B\300?\250\254\030ArQ\253?_\355\225j\200A\301?\272\3631\020\345:\264?\231\010I\326IL\270?\306\304\203\271\037h\274?Y\365\373\366\\C\266?\210\244F\203<\004\271?\263`\306:s\024\246?@C\273\347\031+\300?\223.QK\340\007\316?B[\255\227\317\207\274?\202\223\247\213\230\202\263?\244]\2361@`\274?\014r\347\'t\025\265?\035D\354\305\260\300\264?]\347\322\004\371\365\303?~\240\332\265\304\027\317?V2\310\251\022o\264?q\013\271\371\026;\264?\260\313\203\003@\246\313?\352\230I\2156\362\303?1\257[\2707\265\264?b\020\203\271\020=\300?\302\302\237\232\370\016\262?\317\271\035\022\245\332\277?\336\2340\262{\352\311?\223\216\235\260\367\364\272?95I\214\233\243\272?\371\351Y\277\202\374\276?!\252XK\355\204\257?\261\024\277\345\216W\220?u\367\037\352U\\\304?\031%C\351f\032\300?W\235\356\237\033X\277?\313a\t\001\177\314\264?\316\034P>V\023\301?\257\262\3277\007\272\263?\301\376\244\007)k\267?\317\222t\213\310I\303?]\212\246\021\005\303\256??/\303\034\220\306\266?\304TD\227\201\224\300?\332B\237\256? \260?#I\224\346$N\274?\257.\305Z\036\231\234?\301\237Q\"\330$\310?\013\277\0234\337!\273?\264~m\334\346\266\263?\031\207(\226\303=\252?\372\2748\252\000\003\274?\321\372\240\326PD\252?E\3435!@\025\304?7\3426\013\225\256\261?\2273\200\\\207\217\300?\2167n;\261j\300?+\253\341\tZ\324\231?D<\242\332\221>\307?z\333\366\204\277;\271? [}\022+e\261?\210\023r\207H+\272?FSp\212$\000\261?\"\005\332\023\340\230\307?a\2266O\207\253\277?\227\3337\243X\001\245? \000\\\274d\013\300?\223>Y\243\261\205\273?\205\355\224\377\252\322\264?\375\004\272p\314\244\276??\372\027\"V\250\302?6\312P\316}]\265?\361\246\266/\373\320\274?k\226\214\342\243e\267?}d\207\271#j\273?P\201OP\343\016\302?#\365\212\346\202\254\252?\277\010W\226\241W\252?\274!A|VU\277?\nq$Q\341\350\274?\362\336\237\362\262\235\267?^/n\037\311\227\270?ha\257\255(p\277?0\347\373\2448\031\302?c[>F\004\331\264?Hx\340;\350\024\264?\030\364\253\']t\256?\200d\375\020b\001\250?\320\204\327BQ_\302?\377o\243\003\2750\275?\2222\247\240\342\205\270?O)\276\300\375\227\307?,\273-\177(\222\306?\003W\363\310\221\341\302?\010\366A\221LY\302?<\365\205\346\363\267\240?\2657\327\264{\207\237?(\334\002t%c\306?\276\255\320\024\365\332\306?\376z>0kU\266?\312\344\302\353t\214\312?\335\331O\255[\020\267?\254\273\351\376\000W\252?\027\233\005\303\201\334\273?\014]\000O\227\233\267?E\371\347A\370R\257?l\017s08\026\310?\377#aL\353P\236?t\t\202%)y\266?\201\364\032\251a9\270?\233\233\023\324 g\266?\325H\035\255\002f\255?\027g\372\217\306M\253?\036\222\020\233~\177\300?\375\021\344rL.\276?\246}\013\234\200\347\273?\022qf\000\027\200\302?\213\260 N\331\311\267?\274\002\t>\221\035\273?\310_\246bm\020\300?A\337\200\020u\221\256?0\363s\374}j\263?\3278\264+\241\371\300?\360|\033o\346\010\320?i\361\231T\203\034\250?\374%!\0227\207\267?\357,\242o\320\263\277?\333\246\2771\340\271\265?\272\n\352\332e_\260?\240^L\332$$\274?\350\243\330FF\213\301?\003G\324\324J\222\305?\\lFE\035\317\242?P\341\262Qp\215\266?\342Aq\317\014E\230?\232&%j\2154\247?\004o\030j\354I\274?q\322\'\376\227\007\273?{\273\372\270\003#\315?H\212\310\260\212\267\303?1\317\262=f\337\274?\311\204<\333\3230\310?n\252\346 \205\276\266?\350<?\231: \254?\211\026x\245g\245\304?\341\230\017OI\262\266?\026\270y9\245\351\265?T\347\247\36180\262?lV_X\\\356\\?m\3027\371\237O\310?\001\301h\313\303\206\300?\352:i\356\334\014\257?\027/\256\242S\030\244?\265\222\300`\343l\263?\374\030\224\345\373\024\252?\344\314o\313Y5\244?0\024\243\363\211\330\272? e\037\277\022\243\250?\2055\nS\330(\303?\330\272\2153q\036\270?H\342\\\370\376\\\270?\\@\356vK\337\241?"
      }
    }
  }
}
node {
  name: "normalize_element/component_8"
  op: "Const"
  device: "/device:CPU:0"
  attr {
    key: "_output_shapes"
    value {
      list {
        shape {
          dim {
            size: 194
          }
        }
      }
    }
  }
  attr {
    key: "dtype"
    value {
      type: DT_DOUBLE
    }
  }
  attr {
    key: "value"
    value {
      tensor {
        dtype: DT_DOUBLE
        tensor_shape {
          dim {
            size: 194
          }
        }
        tensor_content: "\342\205\351\205\1774\250?\234a\332\237\332\314\245?\345\177\355\2765@\242?\037bI\332\t\006\224?\365\336\231\202\225\300\261?\226t\212\021f3\251?0r5\003s,\243?\223\303\374\034\354;\247?(\254s]\017^\246?\207`\250\005\'\211\240?tt\355\357\222V\261?\032\354\251|\237\017\240?\376\344H\227\231z\266?J\337\3141\036\372\267?\276\0055#S\243\256?.\023\'\362\202Z\260?\307\'{\203\343\275\247?\231\371\006\r\232i\276?%{hE\362\232\245?\361\362\353\274\312\260\262?g\254=\271\224]\265?\237Yz\203\033h\252?\301!\257bLU\245?Pw\3711Ah\253?\226`\3078\254\224\246?\030R\2247\3770\257?\246\225\245JR!\262?I\210H\006\346\014\252?\212\317`\375\346\230\261?o&A\340\312\327\257?U\0107[qX\243?\301\330k\017\265L\246?\236\315\177Oyb\236?S|\370\t\322R\246?\230\220\002P4+\262?~\236\227n8J\251?\352\237T\271Xjp?Q\177\270\t\311\022\260?j\217\n\250\337\241\234?\300{5\252MH\253?/\277\'dT\n\227?\360\000\361\350\266,\270?\362\3606 V@\247?\250\353:h7y\264?\222\274Ob\313\203\254?eB\236\355i8\244?`I$\227 \237\242?\310\362\234\227\004T\266?\034]z;\217x\264?\031*\333\224\346\347\245?~&\254\241\225\372\245?\346\3579\013\326\223\255?\266\322\277\262?A\244?\342eg\200\364\225\301?<e\300O\330\"\253?\272\275\210\334*\215\251?7CI\377\315\266\231?\320\034\316\006\335\201\254?7\330x\t~\266\252?J\001<~|\375\250?\335\251\317\301r\005\240?\312\372e\341\377O\242?8\276G\024\222\200\245?\256+;\004[\023\246?v\360\033x\030\007\245?1\217\222\335 \350\264?\245\2066\000\033\020\225?k\357\220\270\200\375\237?\037+|\246,}\241?\013\'>~<\342\254?\3110\361\276_\t\244?\013q85\310\013\243?4\3700\270<\217\251?R^\271K\323\001\264?\230,\351\206x4\261?\346\323\247x\003\034\273?\367\216\236K\006\272\243?*wK\344\025\227\253?\310\340\245\3674\367\233?\200\240o\032\301\227\263?#\324`\2500\247\266?m\216R\215\207\214\246?0\353j\227\333b\203?Db\0306\036\372\250?\032\364\342\032X\364\243?S\357\263\016jf\250?\342\322\037\004^\022\242?\340h\253\270\217\341\263?\240 \305\301$\343\260?\302/y,K\256\262?\261:\315]\246\201\260?\341\177\254Y\307\356\255?\255\340\245>\n\203\245?4\237\265\323\275k\261?\2409\033\215\244&\262?%61\272B\363\267?,\250\301\2276Z\261?\0248(M\302\006\262?\232E\232\013k\311\272?N\'<\025.\263\257?z\330C\257\312{\266?9\257\315\240\203)\242?\300\013j\336\302\321\244?\263\035w=\335\350\254?\244\207\215\361\342\366\261?\266\023l\366\034e\253?\316\357f\3232\316\247?K]\021\200\250I\273?8\366\361r\006\266\271?k\021\247L\227\351\254?<\361\210I9\021\245?9\0246\352\276\357\255?-\217\325\260V\"\256?!m2\226(|\262?0R \232\026H\240?\255\307\274\017\271y\243?h\230\230653\256?R\030u\\vP\235?\331\003W\300\327\354\251?q\274\257\210i\370\250?g\3448_\010\023\261?\036\351\365\357F[\253?\256*^\331\303f\227?u\237\036\006\263<\256?\325{9\322j\337\261?\345\304\022g)\177\244?\024]\022\305\266\325\246?h8\005\374\221W\226?4\n\337\201U\203\227?\257\204\232\223\252\374\272?\215\207E\254\310\337\267?\356\210\037p\030]\255?qP<\023\014\372\260?D\204\r\274K\303\256?\207\010\370h\203\251\262?\205\214$\232pJ\260?\335\263\377\030r\240\267??\001\375\206\325\024\272?t\247q\370oa\303?\221W\202\355\251\032\266?\033HJ\214\373\025\246?\207V\364u\203\342\252?\022\202v\003\334^\236?\013(l\360\322\016\255?\246]\361yj\232\253?b\003\255\266\036b\265?\256\317\244fr\336\243?/\355,^R\323\273?\305\270{\266\227\377\262?\325\277\242]\260\024\251?\003l\214\022\376\211\254?\222\314\265+\236A\264?4\223\276\374\215\367\254?\351\017\002/\211l\241?\036\265\357uE5\300?9\207h\375\370\016x\277\252Yo\355\247s\247?\345\032\212.\264\342\254?\372\003\260\304\255\311\225?L\264yV\261|\243?\214\274\327\tb\262\234?\242\352,\272\302\251\237?\271w\332\010.\320\263?\356\336J\251]\251\237?\273\'Q\'\207l\272?2\366\327\213\236\344\264?\317\231\313E0\231\245?B\344C<Q\223\262?\335\371\321\262\346\256\224?\313\032\307\330\241K\255?\350\345\020n\273\233\261?\214\353\240\221V\034\263?8o\272j@\262\236?\036\213+6\377\022\254?\370\321\374s\311\237\260?\007\370p\364\361\203\261?y\024\315T\237\343\256?\033`\213\202\2058\260?O\303\306\333\233\366\246?W\365\207\240I\346\233?\342a`q\306\235\223?\017)R\326y\030\265?3\327\227\334\220\225\242?\267LX\253\016j\242?\376\027Gf\247\377\302?Uv\340\355X\244\257?\206LHW(S\236?k\'\364Ai\204\242?\247\233\357\240\014g\234?\321\3738-\207\374|\277<\027\302A\255/\270?\232.\r\301F\231\240?\271sO\301[\314\235?F\'F\364=\263\253?"
      }
    }
  }
}
node {
  name: "normalize_element/component_9"
  op: "Const"
  device: "/device:CPU:0"
  attr {
    key: "_output_shapes"
    value {
      list {
        shape {
          dim {
            size: 194
          }
        }
      }
    }
  }
  attr {
    key: "dtype"
    value {
      type: DT_DOUBLE
    }
  }
  attr {
    key: "value"
    value {
      tensor {
        dtype: DT_DOUBLE
        tensor_shape {
          dim {
            size: 194
          }
        }
        tensor_content: "\362\251\226\206w?\250?Y\244\320L\014V\267?\231\230\025\'J\204\240?\236\377\034\273K\257\231?\233\364\323\214\000\177\260?I#\241Xg\257\246?\232\032\255\022Hc\241?6\237O\361s\324\246?\376\342YO\233\333\251?Jt\020 \265\034\240?\217\234\214\367\321\023\261?\014l\305\231\207\225\245?\261\226\022\264\217\266\267?\220\r\327|\3626\266?\036\215\272\013\321w\256?W\320\332\213m\364\257?\255\270\020bi\013\247?y\262\257\375\343\013\272?Ag\220\212\030\331\242?\236\345\3636\250\020\262?\276\270p\372\\\350\265?Pe/\023\371\271\252?\021W\274\373]\204\243?\302\302\273\357\'I\251?\316\030N\350\341C\244?\314\023Q\021|\023\252?\254\031Q\216\215\266\261?\2522\347t\264\005\246?\203E\231\233\334`\262?\220\3436\003$\346\257?9\320>\264a\335\242?\223\272\2447\312d\245?\266\244\226\362\311\246\234?\315\350\005\247W-\243?y\274c\215\2072\261?\352|\250\3176\200\255?X\234\327\311\372|m?\363\304n\375\306g\257?\021\317\337r_H\213?TT\322\312\212\317\250?\312\024nW\272K\212?>c\265\262\252\311\267?E\034_9Jw\245?^\253\201\t\203\202\264?\346\352\030n\370\221\252?X\353\032\3461\356\242?n\200v\340\314J\245?\235\220\226\375\314\266\262?\330\007\221\300\252p\256?\222\341\260\350a^\245?\244x\0266c\316\247?Z\022\306m99\256?\203a\276\221\200\236\243?\237\311)\372v\344\303?\301o4a\252\202\253?\317&M\244\260b\251?Dg9\323\373\373\225?\266\305\244\333\354\361\252?/\361k\027\337\277\246?0\260\2507\214J\250?c\227\202\027xL\235?\306\016(p\362(\242?e\253B8\243<\242?P\267\363\312\343S\260?\tz\010\340\357\342\243?n\316\310\355\205\354\264?\323\365\247\001A\210\223?\210\001H\366\323B\241?\364C-L-\373\240?\n\250\257h\354\253\243?\253\214\002!\262x\243?\224%T\0371B\242?.\202Y\260s$\252?\036\230\234\r\013\313\264?U\345\272\252e\313\257?%\246\355Z\240/\275?@\301<\231\274W\244?\300\376#\207\023\216\252?L,\220\243\260\300\232?\210\215\216\270\273\337\263?%}\3457\010\227\266?\323D\315\307\035\205\245?\2121\270\377+\237\213?\177\210\233\300e/\252?3\307nv\3264\246?\247@k \213\244\247?\3731\302\350\255\022\241?\346\274\236f\203w\263?%\347\272\254f\366\261?;\261\252\005\306\337\261?\207\030!\317=\n\243?\3725M0\200\026\251?\355\235\217:SK\244?G\332\327\313\000a\262?\367\377<\320\264\213\261?\031\332z2q\276\270?R\210\006}w\230\255?n\002K/\343\006\261?)B\037i\306\333\263?\257=\317yo\007\257?1\332\013NB\276\266?\010U\315 \374\223\237?~\374u\014g5\242?\307,\275.\252\342\254?^\326\277I\245\350\261?\244?\001\002@\217\252?\t\257vw\021d\247?,\033$\344\206V\267?\347b\035\330;\355\270?\337\347\3120\206#\247?nb\227\224\3723\243?m\030a1\272!\255?\344\307h\202\2003\254?^Y<\321\202\013\262?\2105l\306/\335\240?\236\362\212\325VT\247?g\370\000\361{\032\255?\330\254\254\315\374\363\235?\030\227\354\320\227{\251?q\343tduC\244?\347\276l\240\230s\263?\221~rI\022\332\254?FuLs\261\275\234?\274vn|\033\322\255?w:\227\257\271\215\264?\007\037\304z\025\254\230?\301\013\360\027\222\027\251?=\345pd \372\236?\334\'\027\310\213\003\212?\323\247\205-\236C\272?\255\322\236\021\363L\270?\223Z\021\375&\211\256?e\244\331\232\177\204\260?\266O\"\035y{\257?\342%\n\275\226A\262?\350\310\343\314#\275\260?+\213>\366\345\022\267?p\326\020\267k\213\271?\313\237?\322\177\315\301?x\271\227\032\362\346\265?\016\217\203feh\243?\337\024h\rd\221\261?\206\220\024\r)q\231?\257\210\234\351\036\014\254?\200\002\035\035\277\006\257?\323\373\257;)\210\267?zD@\026\206\356\242?\234\021\221\331\332\364\271?e\234B\213\305\237\262?\343}\236\004\013g\250?\033\0039\310\356y\255? |\225m\301\201\264?\020\362wx\232\217\246?n\330`(\372X\236?on(\211\340\220\277?e\366\017\250RAb\277\257\320\300\365L\"\247?\260\301lI\341V\254?!Q\301\021?\'\230?\312\315\337\240\2273\240?@e\246\373\323\"\237?\334\035z\324]\256\237?\313R\275\305[\230\261?\020\267\277\212\276H\233?\210\346\365\270S\340\266?\205\267\312\275\007\002\264?\220f\326\231\025f\242?\207\272+\225\231\315\261?\361\2454\276\326u\221?)A\245h\352\027\255?\273\203\252aWD\262?\223\024\225ckc\264?|\373\214n1\375\240?\270\367s\201\000V\246?\210o\313\301\030\003\260?\337\2449\027\0362\261?\225b\276\361\362J\262?\217\357q\367P\332\257?=\nV#[`\244??\370~\332\0202\232?\321\364|G9\n\223?\217*\324\344s\270\262?\320\001L\220FB\247?\251z\"\035Xm\241?F\244\255\0271V\277?D\277\024\360\373\317\256?\362u\242\3571\002\235?x\265e\213gz\240?D\217Hv\315-\240?\017E5\260K\020\220\277\355\335\361\266j\010\267?\334$\246\016i\211\245?%\320\261\232\346\321\232?\326K\201<#`\252?"
      }
    }
  }
}
node {
  name: "normalize_element/component_10"
  op: "Const"
  device: "/device:CPU:0"
  attr {
    key: "_output_shapes"
    value {
      list {
        shape {
          dim {
            size: 194
          }
        }
      }
    }
  }
  attr {
    key: "dtype"
    value {
      type: DT_DOUBLE
    }
  }
  attr {
    key: "value"
    value {
      tensor {
        dtype: DT_DOUBLE
        tensor_shape {
          dim {
            size: 194
          }
        }
        tensor_content: "\254\206\231\2759\312\265?\222x\312\201V\324\306?!\205\260\357\312\373\240?\24199\343\376\032\270?\237X\351\346\311R\264?\366\234f\024\332\330\270?\2447\002\017\021\331\253?\277\275z\373\304\030\236?4\333\253\025\301\r\307?\265\370\242\252\372v\260?\'\0179\355\221\034\300?\215\223\263\221\232\337\273?\261?0\027V\311\305?v\351W!\202\275\306?\034\245\277U\246\261\253?\\c\334|?\317\300?\025\264\313\342\276\010\256?\344j\367\272+\014\300?l\272\037i\320\315\271?L\254\r\307S\014\266?\334\244\322\352\014\025\302?\003_\035<\035\214\260?\246\332X\235]\275\261?\211fkk\256\224\272?\035\277\013\351]\255\272?\264\r\372\327\224\331\265?_Y\227\212\365\334\266?#N\333J\245\033\300?\302j\265R\313\200\262?\250\200\334\307\317\233\262?\252\240\213N\342h\300?\246\2279\331\335\356\260?kz\353$\2443\271?\3634\344\310\230u\277?\302h\337\247mm\250?s\337\360\326\207\342\303?j\201\313\320i\367\263?\300\361\025\332\302\276\270?\001\345\2674\363\356\277?\215\"\304\305\354\215\263?\026\"\233<I\340\270?Q\226\316EK7\250?C\267\374_,\216\277?\204\344\232\213\212{\315?\305\207\232gs<\277?\273\234\252,\036\037\263?\200\0074H)\267\274?\257k\375\362\236\n\263?\353<\035\324\355\010\263?\221Qz\263\301Z\301?\236\017*\314\326\025\320?\222X\035\374n\001\264?s\364\206he\334\263?\370\325\207\273\233#\313?{\250\351\212\204<\304?\344\213\337\334\253\313\265?K_\r\362\250(\300?\t\376p\275\221\354\260?\265\032\366\241)@\277?\222p\233U\021\301\310?\354\374\345\3272@\272?\237\204K\'\017\224\272?\0165\002\330\035^\275?\372\357\216z\362\252\265?Gl\034V],\225?\253z\330\217=\220\304?\231Y\353\216<\005\300?\255\363\017%\321\000\300?\007M\277\002\240\243\267?5b\335\255i\364\300?\324\253\022v\233\001\263?\235\206JQ\236\341\266?zQ\206m52\303?H,s\004\272@\255?\311Ir\n<A\272?\303M/\371\353\312\301?{\312\026\273\020\272\260?W\3755Ly\034\273?\215WI\371\203`\233?\256\375S`\267>\310?\331\202\345\325\'\243\266?\275\3357c=\332\263?A\247\023\025\0319\255?h\351wR@\t\275?\325\275\263\025\262\365\253?\272IN\036\375\014\304?|\372\337|\260\255\262?\017\211\006\037\006\027\300?\366\355\221\276*\306\300?\322\332\014\356\t={?\272\3030\244\346R\306?5?@\357t\204\271?\037\204\265n\331\332\261?\234\\\332\020\346m\272?\030\3040\365-\322\262?1\2322\303\2105\310?\263]\016\254\304\353\277?\024\014\332\360c\350\243?\323\232\254r\035:\300?\353T\221\273\034\267\273?e\227=C\027\330\263?\204Q\312\035\226\203\273?\255m\265G\242)\302?\215\301(\340U\221\265?11w\334\331\037\274?7$S\335\332\304\265?\317\371\354*\353\321\272?mL\255\311\343\301\301?\356\205/7\013\300\243?w{\023\272\200\324\251?\375n;\346\234U\277?\035\357\315\360\030\376\274?gW\003\217\315\340\266?\262\032s \351(\267?\322\177\222\337\373\313\275?D3p\274\0223\302?[Z\2333\223\211\264?6\310\371\242\nm\263?7\267\273gZ\353\255?\016\331\032\3635)\242?\276\206\231\343\000\255\301?\027^\3568\352\215\274?\035\354\323E\230\017\270?\277\004\200\300\211\374\307?l\030\r2,s\305?Ef\267a\327`\302?\013!\037\250\336\020\304?\254*\207X\365\240\242?\210U&v\031p\240?c;\240\353I\000\306?\360\224\\ep\013\306?o|\263\356\233R\266?^3\342\312%\n\313?\270d}LiR\266?W2\002U\234\235\253?\311g\017:<\222\273?I\212\266\315\316N\267?\357\324\306R\320_\256?^\256\023\321\216\037\306?\356\347\nr\364Q\243?0\231\033\355g\032\264?\370]\241\247\262\274\267?\202V`\310\352\326\266?\211\021n\244\377\364\254?\036\341hR\000H\253?\037U\335\273\2676\250?B\261\0254-\261\273?\222Z\220|\021,\273?\237\232\230\034\341\356\302?\376\314Nv\233\006\270?q\026\335\027#T\274?\030f\"\036\351I\301?le,\024\225\177\251?\371\375\216\355$>\264?\001\020\216\221\240\203\301?v\231\234\005\232B\317?\361\373\241\023\356\007\253?\'\305R\032\355\025\277?\006U8\274\377\223\277?]\322\263\201\275\007\266?#Y\023M\230\227\260??4\344\271mH\273?>;\374\017\222\200\302?x\334/ -.\306?\231n\005Y\276J\243?\323\350\330\2703\320\265?\260\016\357U\005L\227?\2139B\345\343\003\253?\207v\324\354\017\201\274?\004\020\317\366\016U\277?\023\370\370\301O\325\315?\024$\375\220\223\226\304?;\035`\227\365\243\275?\367\365\360#\206\366\307?c\266\3148\371l\266?T\233?s\304\304\245?Ty\245\246\t\r\305?\375\203C\315br\270?\233\037\252\351\255\023\265?\242\374&\022!5\262?g0\241\335|~{\277\345K\r\014\327\345\310?.\345\n\\\017\200\301?%\217`\020|\177\260?jN\240\200\324\303\241?\272\320\362\302\361\n\264?3a\335s\276\252\261?>\035\205\2474\273\241?\317\227\232\341_\264\273?/\242l\030\245N\247?\205\007\235ueN\303?\025O\306\303>+\271?r\t\362y\346a\270?\323H\305\253\036\303\243?"
      }
    }
  }
}
node {
  name: "normalize_element/component_11"
  op: "Const"
  device: "/device:CPU:0"
  attr {
    key: "_output_shapes"
    value {
      list {
        shape {
          dim {
            size: 194
          }
        }
      }
    }
  }
  attr {
    key: "dtype"
    value {
      type: DT_DOUBLE
    }
  }
  attr {
    key: "value"
    value {
      tensor {
        dtype: DT_DOUBLE
        tensor_shape {
          dim {
            size: 194
          }
        }
        tensor_content: "\n\246\215/I\001\262?\003a\341\003\277v\323?|\345\024\371\002n\252?oL^\203\017<\251?z5f0K]\271?]\001n\336\204\267\262?\357\222!\217,\325\241?\300R\247M\346i\265?\241\006\326\350\n\363\307?%qL\322\331\"\270?\276\352f\036wL\252?i\266\225\330a>\274?\264\347\nm;\230\252?Y\236\370K:3\275?\350\363B\033/\306\266?\327\005\344\224~\327\302?\377\'\366\0051\246\273?\332\3447\037\263@\273?\032\221\270_\357\022\264?\023\361d\244\317\250\275?\337\343\206\276?N\261?\224\256)(\366d\263?\232\220\321_\272Y\264?\205L\241\017p\352\242?G\317\244\202\307\r\250?\207Zch&,\251?\037;\245\014\347\335\262?\214\365\245h\371B\251?\177C\314\030+\331\240?\031RR\033-k\262?\336\254\240\355\3019\262?/-\212!\260\247\271?\313\363W\375Ni\266?\034<\336\247T\320\272?\350Y\343Ht\n\275?\275\253\322\241\311\201\251?k\036d\262\3508\274?\343\305/\255g\267\266?\201E\210o\204l\305?\243\013@\\\237]\231?\206\307\273yc\256\307?\327\\\354\370Z\220\275?\033d%\365\204\366\270?f\250\277\233\304Y\262?_|\362,\030\307v\277\3567\335)R\036\270?\345\313\217\3503\332\254?S\360\002\217\351\265\264?\n\251\364v\370)\257?\024\276\250\361\223i\267?\312\257=\270\335\331\322?i9\361QV>\276?\277\030\t\356\271,\304?\302z\227\343\3712\310?\336\'\370\272\315\232\230?1\311\216\256N%\265?}\261\260\r\000H\265?\017\227=\2053*\216?\316Vr\326&\234\264?\267\273\203\257\032\021\245?:\005Eh\016\r\301?\256\311\355s\211\236\301?\217\343\207J#\346\274?Q\252\376\2723\020\264?\034a\310\037I\237\304?\316\254wH\311\\\262?^w\004\201\337\320\265?P\2422\271\251e\303?\252w\232\307\277!\263?\344\375i\267\036\204\274?\262a\260\217\014\301\267?rE\001Y\212\017\200?A\337/\311uq\320?\347\202\334@\337\350\277?\256\0073p\267Y\252?\376\335\335\370J\010\323?\031\022\360\236\025.\270?\372\026\316\034/0\254?qW\211[\000x\251?\036:\356\250\362|\306?\240\030z@\260\225\277?(\256\273]U\024\274?\032\020\335\220\237\275\304?q:as\"\002\270?^\001\\\373\310\316\262?rlh\303\224Z\254?\334\334\276eSP\261?\260\243\225nWW\277?,\277\251\233\315\333\257?\202\214\270\264\245D\325?\266\215\014`4E\320?\357k\340\353\304\025\276?\001P\365\306qi\303?T}\005n\177\334\273?\222\243\27433c\251?{\254\014\357\341\256\255?7\377\005;+\215\241?+\302\013*\303\333\307?\002D\207\341\237)\276?>QX0\221\325\265?\231\336^\317`\036\272?-\251)\265V5\251?-JH%\356\321\300?\035[\365\3270\345\241?\301\374\"\\Y\306\304?\323v\232l\006\257\267?YO\\w\273*\263?\251\354w\005\373\237\316?\363d\362^\231\335\264?\314.\304\\\345\030\251?Ck\304\032\316\177\307?t\341\034\202\236^\262?\177\004\332*|\216\260?\351\200\221\210\n\004\312?\244o\261&?\367\267?\240R\350f\306\365\274?\272\230\333\307N\233\274?|\365\nn\030\303\272?\3547n\214\370)\265?\r\357-=~\325\301?\211!qC\027\312\300?\376\022\nt\232C\264?\350u\361\242\242v\262?\274|\331\340\276z\317?\3228%7\302\326\275?\341;\374\370\365\n\276?u\371\004\300\340i\302?*1-\274[\361\240?\026\240\022|x\273\275?\273\036.45\333\276?\263+<N\"\331\264?;\254\301\022G\322\270?}\365\036R\377e\236?z\242\242\354Xe\266?\225F>B\334\273\264?\376)\377\2413\205\305?\347f\207\021%\316\236?\223\224\177#=\351\262?\335\357\314\333C\350\320?_.\306\346\001\261\261?\263\270%\220\0274\303?II\2304\tH\300?\241\014l\315\n\020\300?+jmp\333d\304?)!S\234u\326\277?\316\317\235\370\033\201\266?m\206\014\305\314\'\260?\204\357\242TgZ\275?B\177\217d\3205\265?\312\030\214\002^\325\306?\351\305`0E\332\251?\226_a\034\267s\274?\322Y\177\256*\271\305?\265\254\303\035\344?\300?\033%k\2614\240\267?ID\000\211\211\332\327?*\237\246\025-\340\265?\235\363(\234\252\351\273?3\021dt\250u\263?\0371^\031rq\220?\213D\255\330{\313\255?\t(\254\013z\232\277?\265\347*\304\300\306\256?\244\274\177\301\250\203\311?\341o\273\235k\202\261?zNO_\234f\273?U\017c\225|3\246?\316\270\217-\342\363\272?_\017\np\230m\277?Nye\370\376o\267?\255-\237Y\320\203\263?/\016\\U^A\305?\321\307\000yD?\270?\034\261j\236\220\216\266?\003\2357\270\356\222\255?\304\334\203J;y\305?\273\026\343\262\300\215\267?\347\227\271\247H\021\235?\354\n\241v\004_\261?\\uH*\206=\270?r\332\213\034\255`\244?\376\343,\010\2776\313?\321\204I\2309\302\260?\347V3+\016y\305?T(\313C\270_\273?c\350\224$(n\306?a\3015+f\372\260?6\346$}\"\233\253?\224S.\231\322V\304?M\027\270\365\000\001\244?\017d\223\265\263\323\264?\344\013\256GN\227\304?z\217G1\277!\246?\320=?\032\273u\304?"
      }
    }
  }
}
node {
  name: "normalize_element/component_12"
  op: "Const"
  device: "/device:CPU:0"
  attr {
    key: "_output_shapes"
    value {
      list {
        shape {
          dim {
            size: 194
          }
        }
      }
    }
  }
  attr {
    key: "dtype"
    value {
      type: DT_DOUBLE
    }
  }
  attr {
    key: "value"
    value {
      tensor {
        dtype: DT_DOUBLE
        tensor_shape {
          dim {
            size: 194
          }
        }
        tensor_content: "isZ\277\262\265\264?\005q22G]\305?\275\2139\000\311\021\250?\325o\177^S\310\272?\327+\246~P\252\264?\240\001F\256\323\374\270?\223\272?\014\344A\255?3\273\204\311\250\300\243?\275\322{(\246\322\307?N\340\010\030~\354\260?\013\362/YG\033\300?\216V\"A\322\326\271?sl0\0316\346\305?\322\021`[\266\013\307?O\005\300\236\315\257\255?\227\331R\315\315\263\275?V$\325`\342\333\260?P/L4\265]\300?\005\240\223\326\306u\267?\236RI\220V\244\266?\013\024S\027`\207\304?\026\362\255\2641\033\256?h\010/\020\360\343\264?V\334\246\342@\364\272?z\332w\313)\217\273?zH\223\263\371}\264?\240E\373\307^I\267?.\226\243y`=\300?\326eh\244\3648\262?\201Zy\272\3247\263?\233\014s\364\213\241\300?\373\267L\377\362F\262?\206#\020\373y]\272?\217\277\2526\334\240\276?6\231m~.\340\247?\206@.q\344\201\306?\310=\225\207\020\315\264?\231\345n\264<\277\270?x\322\030f\316^\300?[\232\356\204}\014\263?7g5>B6\271?X%3\014\217e\252?)2\366\002\014{\277?\361)\022\251\357\320\313?E\220_L\356\210\277?\\\221m *\373\261?\025\266_qJV\275?\232=\245\212\257d\262?8[\355\037\023\302\262?\307\325\235.X\030\303?&\370\343L\314\240\317?\242OS\347+\252\264?}pK\237\256\322\263?\343\205\3150P:\314?\342\247\021\375QI\304?\364\020\036Q\307\001\267?\215;\202t\341b\300?\227\231\365\tp\337\263?\255t\375\326\334>\277?\363\307\320\213\274\247\310?\240Jw\036\257\234\267?\217\030\313a\350\362\272?\241\n;i:\353\276?\324\3511\253&q\267?\320\034\371\2069v\240?\241\255\200\313.\333\304?\255\020\271\215\304\323\276?\345y}\241\330\356\277?\377\220\341%\366X\266?\000\315%\367i\314\300?\334\335T\273^\316\262?\360o:C\035\310\266?E\224@\224y5\303?\003;\207\375a\365\254?o3uT\276\262\272?\2500+\036[2\303?%]\347j!\004\262?\r\n\035PC\017\272?\232\010\324\310\322z\224?\230\005}c\264\200\310?S\032\343#_\222\265?\325\357\333s\rq\264?\263\004\031\001\025\216\262?3\020J\346\370\353\275?P;n\213AF\256?i\262\356;`\200\303?\233\337B\264\334m\264?\267\273\026\023\354\026\300?\231F\230D\353\230\273?>D\316\273\344\221E?U\221\322\270\254\014\306?\355K\316:\367_\272?#\250uv\215\361\262?\247\252\306\316\270\311\272?\025e\3508\264Q\264?\217\263-&\335\246\310?\316\265\266\220Jh\300?$\331\360\342g\235\245?\377\335V\010\030\216\300?\221]>\231L\003\274?\274]\3550?\032\264?\330\023\215P\224M\273?\3619\371\362\327+\303?\317\231\354S\031<\266?\236\273\016\351xK\275?\337\374Dm4c\273?\307\006\373D\330\317\272?\0034|\321?=\301?\335\t\366_\347\246\242?\027\241\003\213\366\212\261?\321\030\006\\\362\240\277?$%=\014\255N\275?\243\340W\0346\340\266?\226k<\236\267-\266?\310,\217\366\276?\275?\272+\024\031\270d\302?7\242\t\201M7\265?\310\372u\303\220~\264?\243\366F\240\006{\257?\235\272\212v)6\245?q\013&\226E5\301?\002\355\210\3576\202\274?\007\216$q\361\030\270?\031\363\301\322\303G\312?N\203\036A\\\177\305?\272H%e \211\301?>&1\214\344\200\304?\2634\001\320r\352\244?\374\3658C\331\252\240?\342s\321\327\3064\310?Sn\211\371E\013\306?M\315\331\223\244\221\266?\312<\333k\215=\314?#\313L\340\013\320\266?]\2124\274\034\240\260?\335m\220\251\270\372\273?0\177\0300g\207\267?I\243\31756\265\253?\242RRKf\201\303?\232\t\310\217\337x\234?\200\305\373 \264\346\262?\377\004^\000\366\336\267?\227\311. \315;\267?\2352%\374\314\005\256?\377i\010f\003\353\251?\304\314\t\235\201\330\246?\237g\036\206w\265\273?%&\274\305B{\272?u\023\361\340kk\302?\376?\0174\355\202\267??\352\005X\021Y\275?\307\263\262\032\236\240\301?\340\023\372\177&\331\247?4\373\336\324w\346\264?\340\2230\316=6\302?\036N\356\344\304\270\317?C\\\236\246M\327\256?\300\021\235\230\007\206\301?L1\261@\216\002\300?x\317\000e\363;\267?\343\325\270\205NR\261?\206+`5\250\023\274?H\313\220I\227U\304?y\035\244\271\253]\307?\215z\225py\220\245?!QTu\020m\267?-8\334w\247c\235?\345\0306\273\317\240\257?\366\034[F\037\260\274?\334\'\354G/\017\300?\263\002U9s\343\314?V\217\025\253\357\204\303?w\332\207\255\272\275\276?\025\352e\353K|\306?\332{\034\306\327\260\266?#Dn\220\215c\250?\265}\0212eg\305?\002\225)\232\222\242\272?\020\277\356\266\003\334\264?1\335wN\253O\262?\\op)\264\232\210?9$4\320\034\234\311?\322\203\314\337\316\217\302?Ld\242\345\231\307\261?\225\327p\257\321\024\223?\0048\263\031\204\022\265?\300#\324S~.\262?^y\000\363\337o\241?={\330R\332w\274?C\022\014\3236\177\245?\n\025V\t\232?\303?\266\036\002j\021!\272?N\004\360\2358\203\270?E#\036\327&\030\253?"
      }
    }
  }
}
node {
  name: "normalize_element/component_13"
  op: "Const"
  device: "/device:CPU:0"
  attr {
    key: "_output_shapes"
    value {
      list {
        shape {
          dim {
            size: 194
          }
        }
      }
    }
  }
  attr {
    key: "dtype"
    value {
      type: DT_DOUBLE
    }
  }
  attr {
    key: "value"
    value {
      tensor {
        dtype: DT_DOUBLE
        tensor_shape {
          dim {
            size: 194
          }
        }
        tensor_content: "I\374\013\266qA\264?=\354\200I\374\032\303?<K\334\237\225\370\257?\271\025K\\\212U\274?\002\216eC\374\030\265?\0072cS\254o\271?\2556/\351PO\260?a\312\336W\207\321\250?\014|\r\r\000\337\307?`>\342\"\272\021\262?\n\216\303Gaj\300?E>O\006\276W\267?{\316\"\203\370\032\306?\350\327H\245\347\274\306?VF\213\202\314\215\260?k\001\237\364\305+\272?\034\352Bo\233\360\262?\302\224 \332\311\313\301?\224\246g\230\337\013\270?\031\363Y\357N\366\266?w\252-\211t~\310?~e\246\000\215\334\254?\225]\264\360\212\032\272?\354\017\016\242\'\370\273?\331\034a\375\021\231\273?r<\222\327\362f\262?F\026\323\306\275k\270?D\322\331\2175_\300?t\"\267\342\277\031\264?\235I\245\034\357\265\264?\227\357X\355\023\340\300?\200$\274\2423g\263?u~\236\307\247\316\273?1\326q\333B\000\276?\021\253\225\302\351H\251?\263\245\346)\255\352\310?[\036a\324\222g\266?tmcD\206{\270?\036$<\210:\177\277?\375P\224D)3\264?\312\\\021\343\322\004\272?a\274\201*\267\262\254?\"\255\\h\341\004\300?4\220\340\246<\203\311?\032\005\230d\252\001\276?1\352\234\227q\360\260?XEM.\2452\276?b\272\265\361\314\360\262?oY\215>I\256\263?r:\274,\225\023\304?j\017\317\240\016\334\315?\326A|e\2009\266?I8P\207\3454\265?\005\035\226\316\323u\316?B\230\'L\"?\304?\214\310\267D\034U\270?Q\200\356\354\247\326\300?\216\2614lkv\271? \2702\367|\014\300?M\253\201\343\273_\311?\363d\023m\202\000\264?\347\221\237\212\244\250\273?\005\305\001\207_P\301?\356\034\341\354\212$\266?\2422\177\376\333b\250?\0269\317\316%9\305?\331\"\326\323(\323\274?(\310\201\267=J\277?\002\271\352X\252\255\267?4F\031\341U\245\300?\'\317\020\034\004\016\263?VX\001\242\206\r\267?\215\004\236\244\216H\303?\2730\021\360\035\225\255?\026\214c\207\245?\274?W\342K\362m\213\305?\236\215\307\322\250\274\263?\210#\257\321\351.\271?\261?\351A\312\032\220?\217\253\354\026\334\352\310?j\332\244&\352\032\267?\271\036\277\226\333f\265?\026\341Q#\'%\270?\014\261\tO9\275\276?\241m\266k\242\314\260?\265\325+\263\250\222\302?\206\252\211\037\022\247\266?\362v^\014\340\213\300?:\r\036\224\2327\277?D)TI\372:t?\361\247\254\3672I\306?B\213#\021E\301\273?\201`m\020\326\224\264?\013N\240/\215D\273?\377\177\265\315\001\300\265?\207\342\242\033\340\020\311?\334?\220ht\032\301?\245\3242\r\033I\253?[\246\274\334{\006\301?z\"*\202o\202\274?\213U\215\242*\315\263?\311 +\203`\021\275?9\212l\032\355\016\305?.\366\020\355`M\267?\n\221\030\254T\252\277?B\010\024&\226\330\301?\216\236X0\274U\273?\234K\256\270\361\224\300?\020\242\226\225\017\t\246?\222v\340\362\021^\271?u#\357\306\311\027\300?\361\212\323U)\331\275?\274\006\304\276y~\267?\000O\360\323\014\267\265?\tu\313\355\342\246\275?w\212\"\222\213\253\302?\314\340\241\210B\324\266?9 \251\210J\330\266?\217\352K\241\271\357\261?\371\3422>1\212\256?\263\301M<#\356\300?\210\0272\301\352\364\274?[r\356\014\331\224\270?\326zk\322\000\255\315?]^]n`\215\306?\313\307\033\204\254s\300?\321\223\273\232\377\001\304?)5\232\255\323\200\247?\266\240\0019\204\321\240?\254\t\244\357.\n\313?Dd\017\357d\260\306?\320\000\232\345\013\n\267?\315\206\222O\343\254\315?\316\203\031%x[\270?\036}al\000\272\256?:H\260\272\323\362\274?\206K\274s\220&\270?\326E\261\254\231T\250?[\304\267}}W\300?\335\257\230\227\027\356\251?&]+\210\036\004\263?!+]\231n\224\270?\"\372_\365\032\227\267?\204\207\025\340N1\260?\316N\367\033\234q\247?3\333n\262\250\260\264?\305\"\370r\256G\275?\035Nmd\257\333\271?&zb\233)t\301?c`\253q\'r\266?}\270\327\216Q:\276?1^\201U\346G\301?\217!\303\324\335\017\251?*\004wB\335w\265?q$\310\357\n\020\303?k. |t_\320?\276\333fq\231\257\261?\227\326<\315\035\313\301?X+E\270\352v\300?\033\374\305\270W\360\270?\010M\020J\237\243\262?\256\263\226\014D\362\275?\363\222U\312\230\246\306?T\220\312\r\271\353\310?\007\211\316\341CQ\251?\341\275.\271\r\307\272?\265\351hR\223\253\244?\250P\352\206\376m\262?/\355\236\263:\366\274?6\321=\244E!\277?Re\231\367\230\005\313?C\000El}?\301?\355\241k\311$\017\300?\232\242\252\251/B\304?.\254Fo\353\200\267?D\026\200~\223\261\260?*E\300[\377\262\305?\354\220\344\267\275\344\274?\353\247A\311\3137\265?\347<Q|\366\210\262?tX\322kbj\243?\231\027\300\221\311t\312?s\324\275\215N\217\303?\302GH\315\354-\263?\260\233z&\371\346\202?7]\344\330Yx\266?B>l\022Q\006\260?\t\t\346\"\235\005\243?\203\030\355\223\3218\275?\334d\274\374:\257\244?\3733[0\363\010\303?\232\212\020\373]\010\273? \017\364\205\315\326\270?A\032\016~\364\343\262?"
      }
    }
  }
}
node {
  name: "normalize_element/component_14"
  op: "Const"
  device: "/device:CPU:0"
  attr {
    key: "_output_shapes"
    value {
      list {
        shape {
          dim {
            size: 194
          }
        }
      }
    }
  }
  attr {
    key: "dtype"
    value {
      type: DT_DOUBLE
    }
  }
  attr {
    key: "value"
    value {
      tensor {
        dtype: DT_DOUBLE
        tensor_shape {
          dim {
            size: 194
          }
        }
        tensor_content: "\231\263l\035\204\317\242?h.\373k5\310\270?\227\271\303\235@\025}?\211\242!\222\n+\235?\336\016\201\341d4\225?\377\014ge\230f\204?\016*\300c\267P\250?A\325\302\016^\031\220?k\313\312@\257\211\236?\201\217\364{\370\270\220?\257\363bm\373:\206?\034\031\317\223w}\230?\330?\255t\007I\234\277n\361o\036\356\355u\277\245\3416H\370F\237?7\036\350x7\334\232?\236\300*\315\234\344u?\243+q\032+\374\251?{\251\240\356x\235a\277\243n\334l\360\341Y\277\317\006B\255\307O\253?\335\t^C\\x\242?d\317;\241\031\274\224?\004+\034{\325N\231?\253\177Jt\032\222\200?\345+\254\0245\252\221?\001_\263W}\200n\277\3667p \2075\246?\3207~\265^df?f\370\330(\256\324j?a\246\004\374\316\272\204?\026\007\327\251\340Z\231?\212Q\230v\270\275\227?/^.\r\274\215\233?\240tx\301\r\034\223?\033>\000\341\367\372x\277\275V&\"\032\342\230?\324\247\277\330\'\362\225?\264\375\264\034\253>\256?E\233PyU\026\220?\325/\362a\337\026\220?\374\376D\232\265j`?\201s2\260\017dm?\257\303\267\001\266\273\256?\006\342V\360\304t\250?\007\367&-,\035\221?\'\3465\203\263\354\211?\236-P\3554\033\240?\261\'\320\023\016>\252?$\211\024\271\226\177\221?aH\201\027\023!q?\224\356\3272S9\211?W\317\220\304\247\r\250?`\335\321/\254C\223?\376\354\306\t\263\323\253?\215\006\375@J\320\205?\261\014\014\201\245\270\221?\241\254\207Kht\244?H-\260\241}\247\221? \245[t\207T\222?\366\231\270\367\236\001\231?s\257EkB\343\214?\241T\322\365\n,\214?\231E\036D\017\325\246?\266z[\244\341x\234?\231\204@k\324\374\256?%\256\306\206,\332u?\3600\241\r\266\224\222?=\335\343\306\331\346\225?i\021z\313\017;\235?\227\t\214\343*\220\233?T\311\005\t\177\366\221\277\214h\032\230\005\250\262\277\366\221\211\313Y\356\226?\327\237\340<~jZ\277ti\2625\021\354\230?\377:\002{\366\243\223?\302\314\273\r\021\007\250?\231\271\007\273=\025\231?p{\020o\216T\222?\024\213\rMA\315\253?\307\002\221\013\357\356X?\217\353\261\275\256\020\250?\234\006\000\037\240!j\277\357\020\304N\270$\201?cch\271\217\203r?\237sJOw\357\237?\265\3750\344\006\263\244?\372\260A\323\320\016\221?g\351\257\374\236\375}\277\351\204!\211\226\360\235\277)\317z\000\244\231\240?u\006\t\373\275\347|?\030\353\305\227#@\241?\032\005Q\217\036\323;?\002)\036\010\252\365\242?6\207\212\302E&\240?N\353\'}\320\234\251?\312j\314\201\244\243\212?\372(\002 \027j\242?_6*\005\027\n\244?\234 \274\006\025\006i?<\355\361\216\310\201\217?\260\256\322)\004|\231?\205qD\262\330\n\244?yEU\353{\017\220?[\021\203`Xu\221?\371\\Oo\244>\215\277$\035%|\335\214\220\277\343?\337A\2541\226?\017zd\343)\372\245?@\252\177\025\202J\214?\014\301\232\230hot?\\\364\030\\\2509\240?[\026N\375|\216\225?5[e\345\030B\250?\004o\246\024\004\'\245?\251of\342\300%\230?\244\033\0375?a\231?\236\350d\360\312\n\206?\277\231\323\220\261\r\256?\345\2343\375m\252\227?M\230\354|\230\355\221?\234]\214\273 \246\247?S\024\323x.\373\231?\213\316U\232dI\244?hK-\306\206\217\226?\262\357\t`jNe?\321\300\033\024\305\222\223?\217\350a\022u\271\242?M:U\264\365\260`?\311\330\255\276\352c\216?\341\003H(\016\204\246?u\251ok\233z\222?\221y\216\017M\265\223?\243\271A\371*\025\224?\310(qK\033vn\277\325\023\230yk\223|?}*7\351g\376\250\277\340G\235\317l\226\252?HX\271\357\317G\224\277\213\t\t\317\206\'\200?]\023\356o\262\010\242?\347\350\003_W\347\236?\24737\254\227I\241?\357\227\325\217\333\234\225\277\320\335{\246\001\375\206?3\254\027\200\234\351\221?so\200\304o=\242?\007\360\346\016:\237\210?\354\277}\006\234\361\222?A\225V \323\n\206?\234`\370\273\211\267T?u\036\255\033\003s\213?y\304\365\343\207.n\277u}\361\325&\377\245?\331M\0000d\226i?64\337mP\2161?7D=\306\332\264\227?yye\327\360\006\226?\356<T\307\350\210\201?\305\336\356Y\225L\223\277\250\374\020\300r)C\277\236\316MO\343\324\220?d\375\367\304`\034y\277\301[%\372\252\314\240?O\317\341xC\274\243\277\360\325\3766\332]\242?\311\264\371)\325\330\202?\357\010\220i\271\250\253?sH\024\241\253\211\202\2771\360\203\303pM\244\277<\210\351\267\271u\206?\221\351$\351\007f\240?\306<j\315\010\317\241?0F\\\264\213_\256?:\320\"_2#\257?\'\321(\3433g\220?\013M\247\257\306]\201?h\023\315\364,\267=\277\213>\306\254|n\243?\277+\311\3249\023~?\356\224\307\000t\213\241?s\333\201\344\344\030\252?\030\326\331\005\215\335\247?I\223\016\263\360%\235?h\315\260\315\235\313\212?\030\356@\303\271\213\230?\210c-\2430\246s\277\262\234\233n\215\223\240?K\263\317\034\277\333\225?\324\301\212\353\311\020\214?DM\032\301\313\256\205?\206Hl\310V\317\211?"
      }
    }
  }
}
node {
  name: "normalize_element/component_15"
  op: "Const"
  device: "/device:CPU:0"
  attr {
    key: "_output_shapes"
    value {
      list {
        shape {
          dim {
            size: 194
          }
        }
      }
    }
  }
  attr {
    key: "dtype"
    value {
      type: DT_DOUBLE
    }
  }
  attr {
    key: "value"
    value {
      tensor {
        dtype: DT_DOUBLE
        tensor_shape {
          dim {
            size: 194
          }
        }
        tensor_content: "\026,\335v\004\344\242?\013\025\310^\202\342\275?\330\'{\251\252`|?vDXi_4\240?\356\255\241\004\230Z\236?\342^f\306E/\213?\\\354\n>LI\247?\324\256b!\325\330\217?j\322\233\301G\023\240?\332\\\002\336l\355\223?\220\260=\355\317\311\203?\020F&\277\311_\235?-\271\357\360U-\222\277\264\227V\0138\300f\277\272R\372\002\255\322\245?\002W\235\310\330x\232?Z\374\311\277f\036X?\244%W\375\206\223\252?\236\223m\361m\276\306>U(!DqH\200?\276\\\3131G\371\252?T]\343\332 \370\242?\327#569Q\224?\177\217\205\336\236\304\232?3\350|_\371\177\225?\362\320mE?s\220?\257\361\376\027\206\312r?\373\014\221\233-\225\245?\013\302\257m^\220e\277\201\231;om%g?3\205\265\316K\007{?\246J,\3320\313\243?w;t\332P\272\225?\337T\210m\251\210\233?\355Pf\346v\355\226?\020@\220\332\311\202W\277\305\325\240\346\346F\231?\254\210:v\307\227\233?1\251\033\324\360\300\255?\270\265\020\332.\021\210?}1u\006/\302\226?\202\'\026\300\340\017i?\004h\024\370\2564}?k\254\241-\027\214\256?\211:\205\362\304\307\246?\021\014,\357\306\\\217?<\345a9\363\277\205?\222\276K\324\313\"\240?]\234\332\024\355\374\256?\034\20293\'S\224?M\374\356\251\336\022\203?\352\366\013\3265\343\207?\000\001.r\226,\246?\233\001\221\362QN\247?I\273\253\000\332\264\253?n\022\3370\241\347\216?\204\0260\206\0241\224?\350\272\346\021\200\330\250?)\210\rXj\244\224?\261\305\'\312\311\267\225?s\3546.7\246\232?\377&\375\205j\277\203?\210@\225\235\365^\215?,\343\002wp\025\251?\201GG~l\256\241?\016$\200\177p\334\260?\253\270\362\013\017\227}?g?\200|q\370\224?\033\244\214*V\034\225?\213\351\242\036+\303\235?\243\222[\0176\247\236?\316\310\314w\203wH?\261)\222\332\204\256\253\277O\262\245\254~#\232?\211\375c\366\271\247i?{K\350\027\355=\243?\020\316\036\235\367U\234?\320\374\256+\r\314\242?!\341\270\342\233\323\230?\3675\341J\265\320\203?E.\257\221ak\250?\352\236\2578 2\220\277\365\364\334\005\364\t\250?\263\245N\r\"\274W\277G&\347\221-5\210?m\203\221\2316\334r?\241&\327m\2004\240?P`\324\312\221\211\244?v\236\362\224G\312\221?\314h\261\002\346\2339\277\344\305\001u|\024\223\277\007\306\272\353~\253\227?Lx\327\023<\t}?ZW\341\243\271\246\241?\002\365O8\007DB?\314\016\271e\374\005\244?\230T\017\306\2777\224?\315;\375\211\222\334\251?\274\226\341Vy\266\222?8\2656\004\374W\242?h\\\257\0364\021\241?\2127\220\000\376\301y?\022\346W\"9a\216?\227\033\002\003\345\017\232?)d\325\212\260\215\234?\300\332t\253\267k\221?\017\2356\224\356o\221?Pc\330\347\205\311\201?\304\317\354\253\214\365\212\277!\n\226\205\327w\213?,\021x\305+\307\245?\264\t\220\236\253x\220?\375\332\251\242@\353v?\320j\353!\306\335\241?\356\372\360\037\027D\226?\207~a\212V\024\250?\360\272\266k\315L\241?3\312\005\367\233:\233?gj\nK\331u\237?N\313\320\367\241r\202?}\251\327\341s\035\255?c}\371 \250s\241?\340b1)\277\276\230??\366s=\343X\250?|Yu~\323\271\241?SK\001\326\2332\251?i\210g_2\273\226?\342\242\203\303E\315[?b\314\344;\373Ab\277\332\307[\305\032\342\242?S1T\031T\210x?\327\300:\264\346\314\214?\271\335\010\341\212\361\242?\377\033\324\256\244=\225?\001\255\027H\362\212\231?9!\370\010\312\247\224?q\340\301\216\200\203V?u\337\212\364=K\225?H\277WV\225\333\252\277\016<f\274\207-\253?\2332D\t\213n\223\277Uv\217\246Y$~?5Ed~\214\276\234?\211\305\276P\377\332\235?i\030\023\242IP\240?P}\272\226\2359t\277\273\177\224\'\374\221\203?!\236\340\363\247\263\235?\256\217\257\206\211\333\241?\005\326F|\364t\210?\230\243_\014\371(\226?8J\240\2715\206\200?^\n\177\356\032\340a?\253\346l\023\204\261\215?B\202\351\201}\336v\277\360\377\205\023\010\243\255?\214\020?{\005\324y?\363\"\241\232\203\201F?\273\307\2703*\250\226?\243\373\210K\315\237\230?\263\001\006\271\363\023\202?\262\035\337 R\272\223\277l+\356&\225|n\277s\032\334\265\010\265\210?9}Y\264\342\026a\277\331\357r\3314+\240?\236\340\363\247\263\261\241?\341mn\344k\343\241?\355=\367F\366\006\204?O\371\211cZ$\257?\317\375|+w>\222?X\220\262\272\337\345\263\277m\000\231J\375\304\220?S\303\363\\#\245\244?q\033.\356\026\263\241?z\316\023X\313`\256?}\014~d8s\254?\317I\304\233\002\207\226?\362\261e@\220\230\201?T\255i\0049-\212?\2329\272\320\260\246\245?k\246C\363u#x?g\346\205\030\0102\242?\357\253\005\005\304u\257?\263\223\316{\364j\206\277\277\354M\365,T\235?;\300Yk\244|\213?\310\3450y\262\204\227?\342g\022\253\3654F\277O\371\000r\374/\241?/\201!\314i&\236?h0\'\027L\304\223?\021\274\371\304<Vy?K\\n\000\233K\214?"
      }
    }
  }
}
node {
  name: "normalize_element/component_16"
  op: "Const"
  device: "/device:CPU:0"
  attr {
    key: "_output_shapes"
    value {
      list {
        shape {
          dim {
            size: 194
          }
        }
      }
    }
  }
  attr {
    key: "dtype"
    value {
      type: DT_DOUBLE
    }
  }
  attr {
    key: "value"
    value {
      tensor {
        dtype: DT_DOUBLE
        tensor_shape {
          dim {
            size: 194
          }
        }
        tensor_content: "\214\020\213\tK\353\242?\303\2640\212l\207\301?\214\tZ\026\206\247{?3\031G\022\250\361\242?\020:\227\313\016=\224?\330\335\307\307\252\345\217?\034\320\0242>i\246?\033\004K\345U\354\217?o\374\363\256&\301\241?H\273\377\377g\343\226?h\036\370\314\035\363\201?\024\005A\032*\323c?\231\215\306\210\341vz\277d\267\200\344^\337E?\276@\302\220\322\365\254?\312\327\337\276\200\361\231?\014+=\034\"C\224?6!\226\225r3\252?\271\330\003\231\334\251b?\323\350\202\270zg\207?\270W/\204qw\252?>T\333\314o8\243?\253G\313\225\002Q\222?\031$\221>,\"\234?\330\345Y\036\253a\225?}\014\036\362\013\271\220?\335\tc\374\025\341\207?W\214\343U\020\342\244?\300\366\304!\270\035\200\277\023\271\326\232\212\255`?\224\373\326\264v\316[\277\214\247\026\370\'D\245?\324\030\252\353\033[\225?\3337\374\020Id\233?\233z\010\243\214\312\225?\tJ\016.\326\235\"\277\312U\3336T\330\233?\230\203\371[\235\304\240?JK\255C\2522\255?)`\262&S[\213?I\312\'u\023\306\234?c\356U\211\204\177q?\203\240\'\216\321t\205?\212\022\350\244\3338\256?\247\325\232*;\244\245?J8>\244)L\211?y\225x\352\330\333\206?\324\275\312\261\'G\236?a\032Ds\266\343\254?\267A\023\177\031.\226?\307\211\360\333\2028\216?\350g\265\203\273\372\207?xJ\251y\376\034\245?B(f\362\n\032\263?Q\\\322t\035z\253?\331x\333E\313\223\221?^\344f\004\220\344\226?4\256\343\270\206+\255?\251\347\264\331\036\336\221?Zp\300`\227\336\225?\020\306\207\215=q\234?\345\334\375\\\372\270\206?h!\035\370\372U\216?-Uq\374\263\223\257?\000\216\211\ttj\243?\255I\025\227sA\262?\2425A\377\375\\\202?\334\005\236\t\272\256\227?\342\334\221w/s\223?\226\0268\035$\353\236?\260%\327Y\234M\240?\262r\225\022u+S?\025\273v\234\264\006\241\277\226\016\250\307N)\237?{\355\314\026\246u\221?\016\010+P\266A\252?\321616\n\317\240?\007\214\n\251\226\005\240?\206d\221\276\372\214\230?\310w$\274\017\320U?\210 \302Pk\300\246?\326\337\267\306\014\371t?\"W\357\022\3122\250?\210V\221K\310yB?\344\373\223\014\301\360\220?\362\313&\341\276\345l?\246kj\374is\240?\251\230>\314Ba\244?\335\2137K,\235\223?\224\264\333a%|u?\272\210\3716 \351\221\277\201L\027\324J0\260?\275\357\205\272)\224~?\356\260h\276s\275\241?R\247d\202\337[H?\321\246\241H\"\364\243?\213`\036]e\240|?esLK\351\357\252?\314\321Z\006\331\010\215?\016\353#v\301n\242?\313\320*\223\027\"\234?\316\241j\3062\225\203?\312\340oN\001=\214?\333Vvk\340\341\232?\006s\223\317-\237\233?\017|o\200W\323\222?\003x\224\025\206r\221?\016BH/\315!\235?\303\033\317\3601\033\202\277O\207{PC`\210?4\300w.\233\037\244?\273r\225\245\330\374\222?U{\355\246O\003z?$]\335\370\255\262\241?\035u(\316G\325\225?\322\027\233\206C\227\247?T\200\2275\213\371\234?:K=\311%\247\235?\353\370\203\017\222\366\242?]J\266\352\325(\201?\212\244W\257\224\370\253?\003\331\030_\247\235\240?J_\335\270\222\013\240?%\264\311\007[\361\241?\024\231\344@B\246\242?\360\232\241\002qh\246?\207\340P\251&I\226?>`\002\335\265\211u?\3674\302\003L\336e\277\375L\3435\264\243\241?Se\"\351\3669\206?\302\355}h\356:\212?\212\n\031\353\302\337\240?Y\021m{F\030\220?\306?s\243\266w\237?+\333s\330\376G\226?\210\316\322\030$\262|?\":P\034J1\242?sE\264\023\341\003\255\277 \374\245\3645\223\253?]t\252c2\250\224\277\031\252\312\rrV}?a\375S57b\230?\022pG\271\255\215\234?\366\270\007\322\331\212\236?\r\376A\316B\325\204?[]D\227\024x\207?>\337|\016\037\035\234?(\345\372\346\032@\241?\216\365\n\224\337e\214?\005\236 V$\313\230?\251\320\001\310W\242~?\237n\323\261\340\004Z?\212\206_\306!\326\217?\003\315.\262y)\204?\351\221*}-W\247?\333\377\024O\274Q\203?\325\231\367\017TSS?5#\312\261\321F\225?\025x\250\0374\270\230?2HHD\373\317\203?\230\251\026\377\341(\225\277\003I\0038\360||\277\322\321\315\245\210q~?\363\265\035\t\352Jj?\0161\027\036\037 \241?\333\026\201\213\367\336\225?\207C\307\362\324A\241?\265\312\375\")h\205?\200\333,\301VG\260?\220[\207\373\254X\244?\020\244l@m\034\253?>\321B\360b\333\206?%\361\020\313\010\235\250?4\312`\260\016\214\241?\027\347\n\027;\337\255?\305\271]\232\350\024\250?a=\300#\302p\240?\001\273\363\364\254\314\201?\206\255\377\221\356\211\223?#\310\321\264u\204\245?p\260\273i\310\262o?\372\277\3608\257+\242?\371\035]\201\365s\245?\373\262\230\376C\377\230?\032\364$7*:\235?\342\327O\314hN\214?\023.\356\203O\032\226?\t\220nrb\211c?\377&\375\205j\277\241?%\375o\205\255b\243?\244\367\273\347(V\225?\201Cp\250T\223t?\261\266\340G`l\222?"
      }
    }
  }
}
node {
  name: "normalize_element/component_17"
  op: "Const"
  device: "/device:CPU:0"
  attr {
    key: "_output_shapes"
    value {
      list {
        shape {
          dim {
            size: 194
          }
        }
      }
    }
  }
  attr {
    key: "dtype"
    value {
      type: DT_DOUBLE
    }
  }
  attr {
    key: "value"
    value {
      tensor {
        dtype: DT_DOUBLE
        tensor_shape {
          dim {
            size: 194
          }
        }
        tensor_content: "\371\221\232\367\261\342\242?\351)|\372+\313\303?\257-\355\350@U{?3\264\033,\205\010\246?l\251#J\362\221\223?p.\313\305\202<\221?\266,\250m\230\250\245?\221m\244b\037A\220?Op\356\005\037\260\241?k\372\337V\351\n\232?\205d\020>\345\257\200?\312\241\236n;\225\227?1\303`\255\303\231k?\215\200\031r\275\204r?\374Ok\213L\357\261?0\367W\374\227\205\231?\027Ec{\232\204|?\320\013\264\221\244\321\250?\240\223\314T\002\016s?\2312\366y\032\235\210?\t\002,>z\315\251?\323z\307B\3272\243?_z^\236\214\371\216?H\320\353\221\376E\235?\315\365Z)4\253\227?\314\213t\210}\327\221?7D\022F~\300\221?\031\211p\226\t\364\243?\231A\313\246\233E\211\277\211\274O\317g\262R?I;\003]\332\364\210\277\212.\027\r\363\307\243?\274\314\0305KA\226?\214\344SIb\036\233?\023c\202\342\023\'\221?U\007\035\315\301\316U\277\240\3142\320$\315\237?9B\212*\221~\243?\027\031\352\236\337q\254?\336|\324s\223\227\223?\355\267gw\367\351\240?\302p%p(\322v?\035\200Q\245\rW\214?\326\372\234g^\241\255?\334j\352\375\305\272\244?[\277\354\340X\376\201?Fs\004sk\007\214?\014\317\234\014\306<\234?\357\223\255r\304\001\246?h\260y\272\222\233\227?<\321\340|\013g\224?\246\272\"&\0306\211?\026\225`\263T\305\244?\350\'b2\321\367\271?\205\274]\260\315&\253?\031{\265\3677\325\221?\t\236\335\202\356\220\231?\253\353\372L\220m\260?\375,\330>\313\220\206?\315\271\360\220\035\254\223?\017<\274\274@\026\236?q\034\006`\364\366\220?\300\021=&\333\213\217?\326\252\014\314\322\032\263?\307\016g\3245\300\243?\273\351\323\200\372|\263?\374\030C\236\374\224\205?\301\345e\330\036y\232?\\q%\306(\213\221?\207\201\273\247\003=\240?\246uea\231\310\240?\342W:\214:Tr?\335\023\211\341\241*\211\277\362\316\355\232\232H\242?\303\311\257\177\324\257\242?\335h\327\357OJ\260?\313\271Q\272\255Z\242?$X\0031\\_\236?(m\363\304H6\230?\030\251 \324\177\265v\277$\350\305\017\351E\246?R\006K\313\001\350\231\277\006\034\036\317\"l\250?o%\272\265\354\023g?\343\215\321\3348\231\226?4\356\264\322\367\\^?\332n\272\031\371\262\240?\327f\240\210\3766\244?l\036\001\210-\320\225?4\315\212\224\245W\204?\265\221\004D5\343\226\277D\031\373\251)}\226?\234>\252}\024W\200?\206\371\004\346\247\214\241?7\320\0213\332.M?\001k=\222~:\243?\rZ1$s\241t\277\030\230\2434\214\234\254?\225\271pU\026\333m?1\023\320:f}\242?\\\350$=\007\364\226?/\307\370\036\230\035\212?\324%gQm\252\211?r\323\030\r\026\327\233?\372XW\213\243\000\241?d\014S+\261\n\224?\334\377\327\353\243t\221?\017ux8\034\276\246?a\270\354pq\335o\277\243\346\3079\2231\220?m\250\246\221\207\237\241?\375{\206\366\005\202\225?o?q\344\247\217}?[\253\221\353\0231\240?%Q\346!~\276\224?7S\257\310\240\364\246?\330\267=\2107G\232?\335\226\005i\177\315\237?\220Y\315\245~\377\245?\336\0326\234\302\342\201?\235]\245X\301\261\252?\210\327\331\266F\t\226?\352B\266p|\224\243?\013b\354\371\244W\216?l\261\362\003\013\353\240?\217\355$>Q\273\234?\240\001\241gFN\225?\337\302\0139\356H\210?\324\277^@\263\024~?(\337\033,d\372\236?\3209\252`u`\220?h\001\306r\314+\207?\233\214\036P\032\220\237?K|\002\351\341R}?\360\231\255;dj\242?\224\234\336\210\230Y\230?~\233m\212\241~\212?\225\354\357\2449=\251?K\312\005\260\306\256\256\277\315\371d\360\360\321\253?\235f\322\275\206\224\226\277\277\272\3503\271{}?\234\236\240\342r\233\226?\014\300\200\n\271\345\232?\\?2Z\235U\234?\363\316d\251<T\227?B4\263\311\363v\212?QJ\226\000\355(\221?\2148\237e\326\205\240?\304\316\247\235\200w\221?\302f\270\265\020\332\232?Q\3116\371\370G\201?-a\310E\020B;?\032z\r\277p\356\220?N\322\367x\363\344\234?\004?B~JV\232?z\203S\022\036\334\211?O\3177y\374\244[?T\377\227\240\303\322\223?\201\232\340\357\245]\227?\006\206\273\231\"\327\205?\014y\t\360\013\037\227\277\rD\017\257\375\372\203\277X\0338\247_\020k?ih\202/\3543\202?#\253(L\202\261\242?*\255n\336\000\177\233?^\345\020>\202\205\240?O9=\'q\341\206?\272\016Y\315\010)\260?N4\233\t~\002\255?\256\350\t]\037\\\255\277]\3416B\032h\002\277\203$:k\272\025\254?\360o\n\n\007k\241?y\234\002\226\345\266\254?\362\322R\033\312\300\242?(f\200\265\261\254\246?\253S\367^\002\013\202?\003y\234\300y\023\225?Q\306\033@\217\266\243?\252\033v\177\277\017\\?\371\214\203\314G\262\241?\366S\334\353\266!\262?\343\305\200\364f7\203\277J\306UX\265\023\235?1\036\335\274\374D\215?\272\275\210\334*\215\224?\\\374\347\025\301\222r?\362!\311(\246=\242?u\213D\221\203L\247?4\362\237\214\366\032\224?\200\311\305\314\311\201z?qQ\254\241t\354\227?"
      }
    }
  }
}
node {
  name: "normalize_element/component_18"
  op: "Const"
  device: "/device:CPU:0"
  attr {
    key: "_output_shapes"
    value {
      list {
        shape {
          dim {
            size: 194
          }
        }
      }
    }
  }
  attr {
    key: "dtype"
    value {
      type: DT_DOUBLE
    }
  }
  attr {
    key: "value"
    value {
      tensor {
        dtype: DT_DOUBLE
        tensor_shape {
          dim {
            size: 194
          }
        }
        tensor_content: "\315ocv\300\274\242?\375\215\326N\035v\305?813R@\361{?\245\332\271\306\355\353\250?+i-\033\211\017}?)W\253\2100\004\222?yU\266\373\224\344\244?H\3538\026\305\277\220?\005\232\375\361\306\230\242?9\232\373b\361\306\236?OB\375\357\007\212\177?m\307\222A\007\300\222?\341\247\024\265\340\267\260?\003.\021m\234T\201?\234V\002\020\024\313\264?g\212@\302\036}\231?\316S\340\016\033\377\212?1\340K2\211\262\246?\026\014\351\033\221\"|?ZI0w[Y\216?m\354\337\343\266\367\250?\373\372\371m\212\362\242?\204\"\265\007\\\202\210?\374\031v\311L*\235?\375yd\275bW\232?\2617\032\210\261\301\222?Q\224j\360\325\306\226?D\342\002\366\357\377\241?\244l\\\302K\267\217\277\323T\366-\330\3452?\277\242\213\350\377\236\225\277\310/\320v\313\\\244?L\317\354\241\032\202\227?DS\2463X\272\232?\241\003\310Y\243\341\206?%\222\004\273C\205h\277X\006\271\261\367\347\230?\310\307\034;\020\250\245?p$\252\231\260[\253?\340jLq\035/\233?\007\276\232\352f\322\242?]\262\"Q\005/|?\036\320l3\"\014\222?RD\322\343\001\251\254?Z\372\356[O\242\243?U\243\316\0216\222u?\r\225\005g~\242\221?-\222\365\"z\034\235? |\014|c\r\233?v\240\303\206\353t\231?\017\275\3175\357\337\230?\376:\315\210&\336\212?a$\031\021C\255\244?\345\017\311:c2\277?$e\225\026Q\272\252?\320\254\273e\306\\\221?pS>/\325\377\233?\030\245\014\233O\275\261??\261\365\334\247\202p?\016J\034\242\237\343\220?\350_-\237.P\237?T\014\372L\242\320\227?\347V\354U\202\312\220?\242\230.WNa\263?\251{\256\000\360\231\243?\366R\215k7R\264?\204\263h\365f\270\207?\310\177N/\233z\235?\341;@\026\363\212\217?<!\016\356\333\004\241?\271\003mY[\004\241?\322\345\024\267\346\233\200?khc\".\313\202?\202\223\242\322\336\231\240?\311Vl\323\245m\255?#M$\347\260\272\262?\311\327\361\241<\332\243?\217\345l \256\263\235?r\306\310C\363\301\227?@\273\253mv\343\206\277\261\002\213\342\246\035\246?u\242\277\370\353\023\227\277EK\232\026\'\204\250?\034u\220\261\274\246u?\005\245=e\002l\234?\233Q\220tV\037\351\276\222.\245Jn\366\240?\254H\037\317;\t\244?k\311W\300\014\337\227?p\311<\265\244\352\215?X<F\220\202[\236\277\232A\024}R\256\233?\213cHA\374k\201?\036n\357i:z\221?H\321D\204\361fL?\320:\262\013i\001\242?\n\224\347\326x\244\216\277T:\356\032H\245\256?(\r\031\265\031\254\202\277\357,\303}\271V\242?6N3rP\241\222?\023\254\232\265N;\220?\230K.\357?l\204?m\331\003\250\007\327\234?\234lz\205BZ\245?$_\3771Q\335\224?\355(\236\0301j\221?S\331$\375\305\205\255?\252\360%\\\341\300X?\030\030&\021\351\320\226?NA\225\322\347.\245?\223T\350\264U\346\227?4yI\352\244\301\200?%\210\026\200\026\260\234?q\304q\030\200\321\223?\027\'\257\257$b\246?*\366N\007\335\036\223?!\025a\353\233\371\240?\005zPl\337\205\250?\366t\020\234|x\203?\331R\201?nR\251?\340zmf\217x{?z\334;\223\313\271\246?\302\350\371\240U\320v\277O,/z \022\235?\366\035\306\033\3169\202?\272Y\024Z\374\304\224?\010\3448\016\301\023\224?\347\275\260\203\352\351\206?0\nZ\377\3511\232?D$kV{\255\225?\037`\236\257\010\347\203?N\t\256\020[\034\235?\335|vK\261m\001?\345\207\252\225\222\260\244?\207+\341\265\275p\232?\024\351\007@\237r\223?\354\200?\212\247\017\257?\256\0234\271Z\037\257\277\243\244\205\240\252\017\254?\"\277\322\207\233D\230\277\007\322\256\n \361}?\177&\341\223e\300\225?\262sY\240k\314\230?\265\324\3342)\003\232?\312\232:\212\321E\241?\t\272\237N\327\345\214?\021\353\355\314\215\264g?[M\026x\240\256\237?`\204\230g\377\345\223?\355\205\353\031\016\300\234?\343\374\345D\317\356\203?n\234?\257\271\230\017\277vv\215\361\274\257\221?\203\270\240.\272\013\234?\3768\246\226\311J\243?|\216q\300\014\230\220?,\334\374\003\010\306a?\2407f\360/6\222?\226\350\260\353\254P\225?7\002\373,\362\222\207?\216\327\351+;\t\230\277\334\266M\303\200\275\207\277\236\210\030\213\263\3355?\034\300\300K\'\024\215?`\0370\036\304\037\244?\202\006\373\254\273D\240?\241\223R\216\321S\237?\342\235\251\373\363y\210?7\251c\363C5\257?\363GI\366\245\n\262?\356\314\372PF\265\224\277\000R\255\033u\310\207\2778\323\010&\314\356\256?\256\241%\246C[\241?\270\247\302\327\213,\253?F\364h3\031Q\232?\270\325\237\t\274\257\254?\375m\240\327\327n\202?l\305\333\243g\025\226?\316\220U\n\264M\241?\310a\340\\\253\224\001\277\334{\007+\215\031\241?Y\201\r\307t\232\262?D\034\275\252Kw\227?\3147\274\317\3325\235?\267\031\360\367`Y\216?3eB\364\355\"\223?P\351#\232\207\3466?\332\031\336`3\266\242?\3011\037\236\222d\252?=\347\227V}\215\222?\230\212\324N\251\037\203?\277e\353l\n\\\235?"
      }
    }
  }
}
node {
  name: "normalize_element/component_19"
  op: "Const"
  device: "/device:CPU:0"
  attr {
    key: "_output_shapes"
    value {
      list {
        shape {
          dim {
            size: 194
          }
        }
      }
    }
  }
  attr {
    key: "dtype"
    value {
      type: DT_DOUBLE
    }
  }
  attr {
    key: "value"
    value {
      tensor {
        dtype: DT_DOUBLE
        tensor_shape {
          dim {
            size: 194
          }
        }
